{
  "version": "1.0",
  "truncation": null,
  "padding": null,
  "added_tokens": [
    {
      "id": 124893,
      "content": "<|pad|>",
      "single_word": false,
      "lstrip": false,
      "rstrip": false,
      "normalized": false,
      "special": true
    },
    {
      "id": 124894,
      "content": "<|startoftext|>",
      "single_word": false,
      "lstrip": false,
      "rstrip": false,
      "normalized": false,
      "special": true
    },
    {
      "id": 124895,
      "content": "<|endoftext|>",
      "single_word": false,
      "lstrip": false,
      "rstrip": false,
      "normalized": false,
      "special": true
    },
    {
      "id": 124896,
      "content": "<|fim_pre|>",
      "single_word": false,
      "lstrip": false,
      "rstrip": false,
      "normalized": false,
      "special": true
    },
    {
      "id": 124897,
      "content": "<|fim_mid|>",
      "single_word": false,
      "lstrip": false,
      "rstrip": false,
      "normalized": false,
      "special": true
    },
    {
      "id": 124898,
      "content": "<|fim_suf|>",
      "single_word": false,
      "lstrip": false,
      "rstrip": false,
      "normalized": false,
      "special": true
    },
    {
      "id": 124899,
      "content": "<|im_start|>",
      "single_word": false,
      "lstrip": false,
      "rstrip": false,
      "normalized": false,
      "special": true
    },
    {
      "id": 124900,
      "content": "<|im_end|>",
      "single_word": false,
      "lstrip": false,
      "rstrip": false,
      "normalized": false,
      "special": true
    },
    {
      "id": 124901,
      "content": "<think>",
      "single_word": false,
      "lstrip": false,
      "rstrip": false,
      "normalized": false,
      "special": false
    },
    {
      "id": 124902,
      "content": "</think>",
      "single_word": false,
      "lstrip": false,
      "rstrip": false,
      "normalized": false,
      "special": false
    },
    {
      "id": 124903,
      "content": "<|tool_list_start|>",
      "single_word": false,
      "lstrip": false,
      "rstrip": false,
      "normalized": false,
      "special": true
    },
    {
      "id": 124904,
      "content": "<|tool_list_end|>",
      "single_word": false,
      "lstrip": false,
      "rstrip": false,
      "normalized": false,
      "special": true
    },
    {
      "id": 124905,
      "content": "<|tool_call_start|>",
      "single_word": false,
      "lstrip": false,
      "rstrip": false,
      "normalized": false,
      "special": false
    },
    {
      "id": 124906,
      "content": "<|tool_call_end|>",
      "single_word": false,
      "lstrip": false,
      "rstrip": false,
      "normalized": false,
      "special": false
    },
    {
      "id": 124907,
      "content": "<image>",
      "single_word": false,
      "lstrip": false,
      "rstrip": false,
      "normalized": false,
      "special": true
    },
    {
      "id": 124908,
      "content": "<|img_row_1_col_1|>",
      "single_word": false,
      "lstrip": false,
      "rstrip": false,
      "normalized": false,
      "special": true
    },
    {
      "id": 124909,
      "content": "<|img_row_1_col_2|>",
      "single_word": false,
      "lstrip": false,
      "rstrip": false,
      "normalized": false,
      "special": true
    },
    {
      "id": 124910,
      "content": "<|img_row_1_col_3|>",
      "single_word": false,
      "lstrip": false,
      "rstrip": false,
      "normalized": false,
      "special": true
    },
    {
      "id": 124911,
      "content": "<|img_row_1_col_4|>",
      "single_word": false,
      "lstrip": false,
      "rstrip": false,
      "normalized": false,
      "special": true
    },
    {
      "id": 124912,
      "content": "<|img_row_1_col_5|>",
      "single_word": false,
      "lstrip": false,
      "rstrip": false,
      "normalized": false,
      "special": true
    },
    {
      "id": 124913,
      "content": "<|img_row_1_col_6|>",
      "single_word": false,
      "lstrip": false,
      "rstrip": false,
      "normalized": false,
      "special": true
    },
    {
      "id": 124914,
      "content": "<|img_row_1_col_7|>",
      "single_word": false,
      "lstrip": false,
      "rstrip": false,
      "normalized": false,
      "special": true
    },
    {
      "id": 124915,
      "content": "<|img_row_1_col_8|>",
      "single_word": false,
      "lstrip": false,
      "rstrip": false,
      "normalized": false,
      "special": true
    },
    {
      "id": 124916,
      "content": "<|img_row_1_col_9|>",
      "single_word": false,
      "lstrip": false,
      "rstrip": false,
      "normalized": false,
      "special": true
    },
    {
      "id": 124917,
      "content": "<|img_row_1_col_10|>",
      "single_word": false,
      "lstrip": false,
      "rstrip": false,
      "normalized": false,
      "special": true
    },
    {
      "id": 124918,
      "content": "<|img_row_2_col_1|>",
      "single_word": false,
      "lstrip": false,
      "rstrip": false,
      "normalized": false,
      "special": true
    },
    {
      "id": 124919,
      "content": "<|img_row_2_col_2|>",
      "single_word": false,
      "lstrip": false,
      "rstrip": false,
      "normalized": false,
      "special": true
    },
    {
      "id": 124920,
      "content": "<|img_row_2_col_3|>",
      "single_word": false,
      "lstrip": false,
      "rstrip": false,
      "normalized": false,
      "special": true
    },
    {
      "id": 124921,
      "content": "<|img_row_2_col_4|>",
      "single_word": false,
      "lstrip": false,
      "rstrip": false,
      "normalized": false,
      "special": true
    },
    {
      "id": 124922,
      "content": "<|img_row_2_col_5|>",
      "single_word": false,
      "lstrip": false,
      "rstrip": false,
      "normalized": false,
      "special": true
    },
    {
      "id": 124923,
      "content": "<|img_row_2_col_6|>",
      "single_word": false,
      "lstrip": false,
      "rstrip": false,
      "normalized": false,
      "special": true
    },
    {
      "id": 124924,
      "content": "<|img_row_2_col_7|>",
      "single_word": false,
      "lstrip": false,
      "rstrip": false,
      "normalized": false,
      "special": true
    },
    {
      "id": 124925,
      "content": "<|img_row_2_col_8|>",
      "single_word": false,
      "lstrip": false,
      "rstrip": false,
      "normalized": false,
      "special": true
    },
    {
      "id": 124926,
      "content": "<|img_row_2_col_9|>",
      "single_word": false,
      "lstrip": false,
      "rstrip": false,
      "normalized": false,
      "special": true
    },
    {
      "id": 124927,
      "content": "<|img_row_2_col_10|>",
      "single_word": false,
      "lstrip": false,
      "rstrip": false,
      "normalized": false,
      "special": true
    },
    {
      "id": 124928,
      "content": "<|img_row_3_col_1|>",
      "single_word": false,
      "lstrip": false,
      "rstrip": false,
      "normalized": false,
      "special": true
    },
    {
      "id": 124929,
      "content": "<|img_row_3_col_2|>",
      "single_word": false,
      "lstrip": false,
      "rstrip": false,
      "normalized": false,
      "special": true
    },
    {
      "id": 124930,
      "content": "<|img_row_3_col_3|>",
      "single_word": false,
      "lstrip": false,
      "rstrip": false,
      "normalized": false,
      "special": true
    },
    {
      "id": 124931,
      "content": "<|img_row_3_col_4|>",
      "single_word": false,
      "lstrip": false,
      "rstrip": false,
      "normalized": false,
      "special": true
    },
    {
      "id": 124932,
      "content": "<|img_row_3_col_5|>",
      "single_word": false,
      "lstrip": false,
      "rstrip": false,
      "normalized": false,
      "special": true
    },
    {
      "id": 124933,
      "content": "<|img_row_3_col_6|>",
      "single_word": false,
      "lstrip": false,
      "rstrip": false,
      "normalized": false,
      "special": true
    },
    {
      "id": 124934,
      "content": "<|img_row_3_col_7|>",
      "single_word": false,
      "lstrip": false,
      "rstrip": false,
      "normalized": false,
      "special": true
    },
    {
      "id": 124935,
      "content": "<|img_row_3_col_8|>",
      "single_word": false,
      "lstrip": false,
      "rstrip": false,
      "normalized": false,
      "special": true
    },
    {
      "id": 124936,
      "content": "<|img_row_3_col_9|>",
      "single_word": false,
      "lstrip": false,
      "rstrip": false,
      "normalized": false,
      "special": true
    },
    {
      "id": 124937,
      "content": "<|img_row_3_col_10|>",
      "single_word": false,
      "lstrip": false,
      "rstrip": false,
      "normalized": false,
      "special": true
    },
    {
      "id": 124938,
      "content": "<|img_row_4_col_1|>",
      "single_word": false,
      "lstrip": false,
      "rstrip": false,
      "normalized": false,
      "special": true
    },
    {
      "id": 124939,
      "content": "<|img_row_4_col_2|>",
      "single_word": false,
      "lstrip": false,
      "rstrip": false,
      "normalized": false,
      "special": true
    },
    {
      "id": 124940,
      "content": "<|img_row_4_col_3|>",
      "single_word": false,
      "lstrip": false,
      "rstrip": false,
      "normalized": false,
      "special": true
    },
    {
      "id": 124941,
      "content": "<|img_row_4_col_4|>",
      "single_word": false,
      "lstrip": false,
      "rstrip": false,
      "normalized": false,
      "special": true
    },
    {
      "id": 124942,
      "content": "<|img_row_4_col_5|>",
      "single_word": false,
      "lstrip": false,
      "rstrip": false,
      "normalized": false,
      "special": true
    },
    {
      "id": 124943,
      "content": "<|img_row_4_col_6|>",
      "single_word": false,
      "lstrip": false,
      "rstrip": false,
      "normalized": false,
      "special": true
    },
    {
      "id": 124944,
      "content": "<|img_row_4_col_7|>",
      "single_word": false,
      "lstrip": false,
      "rstrip": false,
      "normalized": false,
      "special": true
    },
    {
      "id": 124945,
      "content": "<|img_row_4_col_8|>",
      "single_word": false,
      "lstrip": false,
      "rstrip": false,
      "normalized": false,
      "special": true
    },
    {
      "id": 124946,
      "content": "<|img_row_4_col_9|>",
      "single_word": false,
      "lstrip": false,
      "rstrip": false,
      "normalized": false,
      "special": true
    },
    {
      "id": 124947,
      "content": "<|img_row_4_col_10|>",
      "single_word": false,
      "lstrip": false,
      "rstrip": false,
      "normalized": false,
      "special": true
    },
    {
      "id": 124948,
      "content": "<|img_row_5_col_1|>",
      "single_word": false,
      "lstrip": false,
      "rstrip": false,
      "normalized": false,
      "special": true
    },
    {
      "id": 124949,
      "content": "<|img_row_5_col_2|>",
      "single_word": false,
      "lstrip": false,
      "rstrip": false,
      "normalized": false,
      "special": true
    },
    {
      "id": 124950,
      "content": "<|img_row_5_col_3|>",
      "single_word": false,
      "lstrip": false,
      "rstrip": false,
      "normalized": false,
      "special": true
    },
    {
      "id": 124951,
      "content": "<|img_row_5_col_4|>",
      "single_word": false,
      "lstrip": false,
      "rstrip": false,
      "normalized": false,
      "special": true
    },
    {
      "id": 124952,
      "content": "<|img_row_5_col_5|>",
      "single_word": false,
      "lstrip": false,
      "rstrip": false,
      "normalized": false,
      "special": true
    },
    {
      "id": 124953,
      "content": "<|img_row_5_col_6|>",
      "single_word": false,
      "lstrip": false,
      "rstrip": false,
      "normalized": false,
      "special": true
    },
    {
      "id": 124954,
      "content": "<|img_row_5_col_7|>",
      "single_word": false,
      "lstrip": false,
      "rstrip": false,
      "normalized": false,
      "special": true
    },
    {
      "id": 124955,
      "content": "<|img_row_5_col_8|>",
      "single_word": false,
      "lstrip": false,
      "rstrip": false,
      "normalized": false,
      "special": true
    },
    {
      "id": 124956,
      "content": "<|img_row_5_col_9|>",
      "single_word": false,
      "lstrip": false,
      "rstrip": false,
      "normalized": false,
      "special": true
    },
    {
      "id": 124957,
      "content": "<|img_row_5_col_10|>",
      "single_word": false,
      "lstrip": false,
      "rstrip": false,
      "normalized": false,
      "special": true
    },
    {
      "id": 124958,
      "content": "<|img_row_6_col_1|>",
      "single_word": false,
      "lstrip": false,
      "rstrip": false,
      "normalized": false,
      "special": true
    },
    {
      "id": 124959,
      "content": "<|img_row_6_col_2|>",
      "single_word": false,
      "lstrip": false,
      "rstrip": false,
      "normalized": false,
      "special": true
    },
    {
      "id": 124960,
      "content": "<|img_row_6_col_3|>",
      "single_word": false,
      "lstrip": false,
      "rstrip": false,
      "normalized": false,
      "special": true
    },
    {
      "id": 124961,
      "content": "<|img_row_6_col_4|>",
      "single_word": false,
      "lstrip": false,
      "rstrip": false,
      "normalized": false,
      "special": true
    },
    {
      "id": 124962,
      "content": "<|img_row_6_col_5|>",
      "single_word": false,
      "lstrip": false,
      "rstrip": false,
      "normalized": false,
      "special": true
    },
    {
      "id": 124963,
      "content": "<|img_row_6_col_6|>",
      "single_word": false,
      "lstrip": false,
      "rstrip": false,
      "normalized": false,
      "special": true
    },
    {
      "id": 124964,
      "content": "<|img_row_6_col_7|>",
      "single_word": false,
      "lstrip": false,
      "rstrip": false,
      "normalized": false,
      "special": true
    },
    {
      "id": 124965,
      "content": "<|img_row_6_col_8|>",
      "single_word": false,
      "lstrip": false,
      "rstrip": false,
      "normalized": false,
      "special": true
    },
    {
      "id": 124966,
      "content": "<|img_row_6_col_9|>",
      "single_word": false,
      "lstrip": false,
      "rstrip": false,
      "normalized": false,
      "special": true
    },
    {
      "id": 124967,
      "content": "<|img_row_6_col_10|>",
      "single_word": false,
      "lstrip": false,
      "rstrip": false,
      "normalized": false,
      "special": true
    },
    {
      "id": 124968,
      "content": "<|img_row_7_col_1|>",
      "single_word": false,
      "lstrip": false,
      "rstrip": false,
      "normalized": false,
      "special": true
    },
    {
      "id": 124969,
      "content": "<|img_row_7_col_2|>",
      "single_word": false,
      "lstrip": false,
      "rstrip": false,
      "normalized": false,
      "special": true
    },
    {
      "id": 124970,
      "content": "<|img_row_7_col_3|>",
      "single_word": false,
      "lstrip": false,
      "rstrip": false,
      "normalized": false,
      "special": true
    },
    {
      "id": 124971,
      "content": "<|img_row_7_col_4|>",
      "single_word": false,
      "lstrip": false,
      "rstrip": false,
      "normalized": false,
      "special": true
    },
    {
      "id": 124972,
      "content": "<|img_row_7_col_5|>",
      "single_word": false,
      "lstrip": false,
      "rstrip": false,
      "normalized": false,
      "special": true
    },
    {
      "id": 124973,
      "content": "<|img_row_7_col_6|>",
      "single_word": false,
      "lstrip": false,
      "rstrip": false,
      "normalized": false,
      "special": true
    },
    {
      "id": 124974,
      "content": "<|img_row_7_col_7|>",
      "single_word": false,
      "lstrip": false,
      "rstrip": false,
      "normalized": false,
      "special": true
    },
    {
      "id": 124975,
      "content": "<|img_row_7_col_8|>",
      "single_word": false,
      "lstrip": false,
      "rstrip": false,
      "normalized": false,
      "special": true
    },
    {
      "id": 124976,
      "content": "<|img_row_7_col_9|>",
      "single_word": false,
      "lstrip": false,
      "rstrip": false,
      "normalized": false,
      "special": true
    },
    {
      "id": 124977,
      "content": "<|img_row_7_col_10|>",
      "single_word": false,
      "lstrip": false,
      "rstrip": false,
      "normalized": false,
      "special": true
    },
    {
      "id": 124978,
      "content": "<|img_row_8_col_1|>",
      "single_word": false,
      "lstrip": false,
      "rstrip": false,
      "normalized": false,
      "special": true
    },
    {
      "id": 124979,
      "content": "<|img_row_8_col_2|>",
      "single_word": false,
      "lstrip": false,
      "rstrip": false,
      "normalized": false,
      "special": true
    },
    {
      "id": 124980,
      "content": "<|img_row_8_col_3|>",
      "single_word": false,
      "lstrip": false,
      "rstrip": false,
      "normalized": false,
      "special": true
    },
    {
      "id": 124981,
      "content": "<|img_row_8_col_4|>",
      "single_word": false,
      "lstrip": false,
      "rstrip": false,
      "normalized": false,
      "special": true
    },
    {
      "id": 124982,
      "content": "<|img_row_8_col_5|>",
      "single_word": false,
      "lstrip": false,
      "rstrip": false,
      "normalized": false,
      "special": true
    },
    {
      "id": 124983,
      "content": "<|img_row_8_col_6|>",
      "single_word": false,
      "lstrip": false,
      "rstrip": false,
      "normalized": false,
      "special": true
    },
    {
      "id": 124984,
      "content": "<|img_row_8_col_7|>",
      "single_word": false,
      "lstrip": false,
      "rstrip": false,
      "normalized": false,
      "special": true
    },
    {
      "id": 124985,
      "content": "<|img_row_8_col_8|>",
      "single_word": false,
      "lstrip": false,
      "rstrip": false,
      "normalized": false,
      "special": true
    },
    {
      "id": 124986,
      "content": "<|img_row_8_col_9|>",
      "single_word": false,
      "lstrip": false,
      "rstrip": false,
      "normalized": false,
      "special": true
    },
    {
      "id": 124987,
      "content": "<|img_row_8_col_10|>",
      "single_word": false,
      "lstrip": false,
      "rstrip": false,
      "normalized": false,
      "special": true
    },
    {
      "id": 124988,
      "content": "<|img_row_9_col_1|>",
      "single_word": false,
      "lstrip": false,
      "rstrip": false,
      "normalized": false,
      "special": true
    },
    {
      "id": 124989,
      "content": "<|img_row_9_col_2|>",
      "single_word": false,
      "lstrip": false,
      "rstrip": false,
      "normalized": false,
      "special": true
    },
    {
      "id": 124990,
      "content": "<|img_row_9_col_3|>",
      "single_word": false,
      "lstrip": false,
      "rstrip": false,
      "normalized": false,
      "special": true
    },
    {
      "id": 124991,
      "content": "<|img_row_9_col_4|>",
      "single_word": false,
      "lstrip": false,
      "rstrip": false,
      "normalized": false,
      "special": true
    },
    {
      "id": 124992,
      "content": "<|img_row_9_col_5|>",
      "single_word": false,
      "lstrip": false,
      "rstrip": false,
      "normalized": false,
      "special": true
    },
    {
      "id": 124993,
      "content": "<|img_row_9_col_6|>",
      "single_word": false,
      "lstrip": false,
      "rstrip": false,
      "normalized": false,
      "special": true
    },
    {
      "id": 124994,
      "content": "<|img_row_9_col_7|>",
      "single_word": false,
      "lstrip": false,
      "rstrip": false,
      "normalized": false,
      "special": true
    },
    {
      "id": 124995,
      "content": "<|img_row_9_col_8|>",
      "single_word": false,
      "lstrip": false,
      "rstrip": false,
      "normalized": false,
      "special": true
    },
    {
      "id": 124996,
      "content": "<|img_row_9_col_9|>",
      "single_word": false,
      "lstrip": false,
      "rstrip": false,
      "normalized": false,
      "special": true
    },
    {
      "id": 124997,
      "content": "<|img_row_9_col_10|>",
      "single_word": false,
      "lstrip": false,
      "rstrip": false,
      "normalized": false,
      "special": true
    },
    {
      "id": 124998,
      "content": "<|img_row_10_col_1|>",
      "single_word": false,
      "lstrip": false,
      "rstrip": false,
      "normalized": false,
      "special": true
    },
    {
      "id": 124999,
      "content": "<|img_row_10_col_2|>",
      "single_word": false,
      "lstrip": false,
      "rstrip": false,
      "normalized": false,
      "special": true
    },
    {
      "id": 125000,
      "content": "<|img_row_10_col_3|>",
      "single_word": false,
      "lstrip": false,
      "rstrip": false,
      "normalized": false,
      "special": true
    },
    {
      "id": 125001,
      "content": "<|img_row_10_col_4|>",
      "single_word": false,
      "lstrip": false,
      "rstrip": false,
      "normalized": false,
      "special": true
    },
    {
      "id": 125002,
      "content": "<|img_row_10_col_5|>",
      "single_word": false,
      "lstrip": false,
      "rstrip": false,
      "normalized": false,
      "special": true
    },
    {
      "id": 125003,
      "content": "<|img_row_10_col_6|>",
      "single_word": false,
      "lstrip": false,
      "rstrip": false,
      "normalized": false,
      "special": true
    },
    {
      "id": 125004,
      "content": "<|img_row_10_col_7|>",
      "single_word": false,
      "lstrip": false,
      "rstrip": false,
      "normalized": false,
      "special": true
    },
    {
      "id": 125005,
      "content": "<|img_row_10_col_8|>",
      "single_word": false,
      "lstrip": false,
      "rstrip": false,
      "normalized": false,
      "special": true
    },
    {
      "id": 125006,
      "content": "<|img_row_10_col_9|>",
      "single_word": false,
      "lstrip": false,
      "rstrip": false,
      "normalized": false,
      "special": true
    },
    {
      "id": 125007,
      "content": "<|img_row_10_col_10|>",
      "single_word": false,
      "lstrip": false,
      "rstrip": false,
      "normalized": false,
      "special": true
    },
    {
      "id": 125008,
      "content": "<|img_thumbnail|>",
      "single_word": false,
      "lstrip": false,
      "rstrip": false,
      "normalized": false,
      "special": true
    },
    {
      "id": 125009,
      "content": "<|image_start|>",
      "single_word": false,
      "lstrip": false,
      "rstrip": false,
      "normalized": false,
      "special": true
    },
    {
      "id": 125010,
      "content": "<|image_end|>",
      "single_word": false,
      "lstrip": false,
      "rstrip": false,
      "normalized": false,
      "special": true
    },
    {
      "id": 125011,
      "content": "<|image_split|>",
      "single_word": false,
      "lstrip": false,
      "rstrip": false,
      "normalized": false,
      "special": true
    },
    {
      "id": 125012,
      "content": "<|audio_start|>",
      "single_word": false,
      "lstrip": false,
      "rstrip": false,
      "normalized": false,
      "special": true
    },
    {
      "id": 125013,
      "content": "<|text_start|>",
      "single_word": false,
      "lstrip": false,
      "rstrip": false,
      "normalized": false,
      "special": true
    },
    {
      "id": 125014,
      "content": "<|text_end|>",
      "single_word": false,
      "lstrip": false,
      "rstrip": false,
      "normalized": false,
      "special": true
    },
    {
      "id": 125015,
      "content": "<|mixed_start|>",
      "single_word": false,
      "lstrip": false,
      "rstrip": false,
      "normalized": false,
      "special": true
    },
    {
      "id": 125016,
      "content": "<|mixed_end|>",
      "single_word": false,
      "lstrip": false,
      "rstrip": false,
      "normalized": false,
      "special": true
    }
  ],
  "normalizer": null,
  "pre_tokenizer": {
    "type": "Sequence",
    "pretokenizers": [
      {
        "type": "Split",
        "pattern": {
          "Regex": "(?i:'s|'t|'re|'ve|'m|'ll|'d)|[^\\r\\n\\p{L}\\p{N}]?\\p{L}+|\\p{N}{1,3}| ?[^\\s\\p{L}\\p{N}]+[\\r\\n]*|\\s*[\\r\\n]+|\\s+(?!\\S)|\\s+"
        },
        "behavior": "Isolated",
        "invert": false
      },
      {
        "type": "ByteLevel",
        "add_prefix_space": false,
        "trim_offsets": true,
        "use_regex": false
      }
    ]
  },
  "post_processor": {
    "type": "ByteLevel",
    "add_prefix_space": true,
    "trim_offsets": false,
    "use_regex": true
  },
  "decoder": {
    "type": "ByteLevel",
    "add_prefix_space": true,
    "trim_offsets": true,
    "use_regex": true
  },
  "model": {
    "type": "BPE",
    "dropout": null,
    "unk_token": null,
    "continuing_subword_prefix": null,
    "end_of_word_suffix": null,
    "fuse_unk": false,
    "byte_fallback": false,
    "ignore_merges": true,
    "vocab": {
      "ĊĊĊĊĊĊĊĊĊĊ": 0,
      "ĊĊĊĊĊĊĊĊĊ": 1,
      "ĊĊĊĊĊĊĊĊ": 2,
      "ĊĊĊĊĊĊĊ": 3,
      "ĊĊĊĊĊĊ": 4,
      "ĊĊĊĊĊ": 5,
      "ĊĊĊĊ": 6,
      "ĊĊĊ": 7,
      "ĊĊ": 8,
      "!": 9,
      "\"": 10,
      "#": 11,
      "$": 12,
      "%": 13,
      "&": 14,
      "'": 15,
      "(": 16,
      ")": 17,
      "*": 18,
      "+": 19,
      ",": 20,
      "-": 21,
      ".": 22,
      "/": 23,
      "0": 24,
      "1": 25,
      "2": 26,
      "3": 27,
      "4": 28,
      "5": 29,
      "6": 30,
      "7": 31,
      "8": 32,
      "9": 33,
      ":": 34,
      ";": 35,
      "<": 36,
      "=": 37,
      ">": 38,
      "?": 39,
      "@": 40,
      "A": 41,
      "B": 42,
      "C": 43,
      "D": 44,
      "E": 45,
      "F": 46,
      "G": 47,
      "H": 48,
      "I": 49,
      "J": 50,
      "K": 51,
      "L": 52,
      "M": 53,
      "N": 54,
      "O": 55,
      "P": 56,
      "Q": 57,
      "R": 58,
      "S": 59,
      "T": 60,
      "U": 61,
      "V": 62,
      "W": 63,
      "X": 64,
      "Y": 65,
      "Z": 66,
      "[": 67,
      "\\": 68,
      "]": 69,
      "^": 70,
      "_": 71,
      "`": 72,
      "a": 73,
      "b": 74,
      "c": 75,
      "d": 76,
      "e": 77,
      "f": 78,
      "g": 79,
      "h": 80,
      "i": 81,
      "j": 82,
      "k": 83,
      "l": 84,
      "m": 85,
      "n": 86,
      "o": 87,
      "p": 88,
      "q": 89,
      "r": 90,
      "s": 91,
      "t": 92,
      "u": 93,
      "v": 94,
      "w": 95,
      "x": 96,
      "y": 97,
      "z": 98,
      "{": 99,
      "|": 100,
      "}": 101,
      "~": 102,
      "¡": 103,
      "¢": 104,
      "£": 105,
      "¤": 106,
      "¥": 107,
      "¦": 108,
      "§": 109,
      "¨": 110,
      "©": 111,
      "ª": 112,
      "«": 113,
      "¬": 114,
      "®": 115,
      "¯": 116,
      "°": 117,
      "±": 118,
      "²": 119,
      "³": 120,
      "´": 121,
      "µ": 122,
      "¶": 123,
      "·": 124,
      "¸": 125,
      "¹": 126,
      "º": 127,
      "»": 128,
      "¼": 129,
      "½": 130,
      "¾": 131,
      "¿": 132,
      "À": 133,
      "Á": 134,
      "Â": 135,
      "Ã": 136,
      "Ä": 137,
      "Å": 138,
      "Æ": 139,
      "Ç": 140,
      "È": 141,
      "É": 142,
      "Ê": 143,
      "Ë": 144,
      "Ì": 145,
      "Í": 146,
      "Î": 147,
      "Ï": 148,
      "Ð": 149,
      "Ñ": 150,
      "Ò": 151,
      "Ó": 152,
      "Ô": 153,
      "Õ": 154,
      "Ö": 155,
      "×": 156,
      "Ø": 157,
      "Ù": 158,
      "Ú": 159,
      "Û": 160,
      "Ü": 161,
      "Ý": 162,
      "Þ": 163,
      "ß": 164,
      "à": 165,
      "á": 166,
      "â": 167,
      "ã": 168,
      "ä": 169,
      "å": 170,
      "æ": 171,
      "ç": 172,
      "è": 173,
      "é": 174,
      "ê": 175,
      "ë": 176,
      "ì": 177,
      "í": 178,
      "î": 179,
      "ï": 180,
      "ð": 181,
      "ñ": 182,
      "ò": 183,
      "ó": 184,
      "ô": 185,
      "õ": 186,
      "ö": 187,
      "÷": 188,
      "ø": 189,
      "ù": 190,
      "ú": 191,
      "û": 192,
      "ü": 193,
      "ý": 194,
      "þ": 195,
      "ÿ": 196,
      "Ā": 197,
      "ā": 198,
      "Ă": 199,
      "ă": 200,
      "Ą": 201,
      "ą": 202,
      "Ć": 203,
      "ć": 204,
      "Ĉ": 205,
      "ĉ": 206,
      "Ċ": 207,
      "ċ": 208,
      "Č": 209,
      "č": 210,
      "Ď": 211,
      "ď": 212,
      "Đ": 213,
      "đ": 214,
      "Ē": 215,
      "ē": 216,
      "Ĕ": 217,
      "ĕ": 218,
      "Ė": 219,
      "ė": 220,
      "Ę": 221,
      "ę": 222,
      "Ě": 223,
      "ě": 224,
      "Ĝ": 225,
      "ĝ": 226,
      "Ğ": 227,
      "ğ": 228,
      "Ġ": 229,
      "ġ": 230,
      "Ģ": 231,
      "ģ": 232,
      "Ĥ": 233,
      "ĥ": 234,
      "Ħ": 235,
      "ħ": 236,
      "Ĩ": 237,
      "ĩ": 238,
      "Ī": 239,
      "ī": 240,
      "Ĭ": 241,
      "ĭ": 242,
      "Į": 243,
      "į": 244,
      "İ": 245,
      "ı": 246,
      "Ĳ": 247,
      "ĳ": 248,
      "Ĵ": 249,
      "ĵ": 250,
      "Ķ": 251,
      "ķ": 252,
      "ĸ": 253,
      "Ĺ": 254,
      "ĺ": 255,
      "Ļ": 256,
      "ļ": 257,
      "Ľ": 258,
      "ľ": 259,
      "Ŀ": 260,
      "ŀ": 261,
      "Ł": 262,
      "ł": 263,
      "Ń": 264,
      "Ġt": 265,
      "ĠĠ": 266,
      "Ġa": 267,
      "in": 268,
      "er": 269,
      "en": 270,
      "on": 271,
      "he": 272,
      "es": 273,
      "Ġs": 274,
      "at": 275,
      "or": 276,
      "Ġd": 277,
      "Ġthe": 278,
      "an": 279,
      "Ġc": 280,
      "re": 281,
      "is": 282,
      "Ġp": 283,
      "it": 284,
      "al": 285,
      "Ġo": 286,
      "ar": 287,
      "Ġw": 288,
      "ĠĠĠĠ": 289,
      "ed": 290,
      "Ġf": 291,
      "ic": 292,
      "Ġb": 293,
      "nd": 294,
      "Ġm": 295,
      "Ġin": 296,
      "ou": 297,
      "le": 298,
      "ing": 299,
      "ion": 300,
      "as": 301,
      "Ġof": 302,
      "ãģ": 303,
      "ro": 304,
      "ent": 305,
      "ĠÐ": 306,
      "el": 307,
      "Ġl": 308,
      "Ġand": 309,
      "Ġto": 310,
      "Ġh": 311,
      "et": 312,
      "il": 313,
      "Ð¾": 314,
      "om": 315,
      "Ġn": 316,
      "Ð°": 317,
      ".Ċ": 318,
      "st": 319,
      "Ġe": 320,
      "ct": 321,
      "Ġth": 322,
      "ch": 323,
      "Ġde": 324,
      "ĠS": 325,
      "ur": 326,
      "ol": 327,
      "Ðµ": 328,
      "Ð¸": 329,
      "am": 330,
      "Ġu": 331,
      "id": 332,
      "im": 333,
      "ĠA": 334,
      "Ġg": 335,
      "ĠT": 336,
      "ad": 337,
      "ig": 338,
      "Ġre": 339,
      "ĠC": 340,
      "ut": 341,
      "Ġ(": 342,
      "âĢ": 343,
      "Ð½": 344,
      "iv": 345,
      "Ġv": 346,
      "os": 347,
      "ot": 348,
      "ÑĢ": 349,
      "ãĤ": 350,
      "ation": 351,
      "ra": 352,
      "ce": 353,
      "ÑĤ": 354,
      "Ġis": 355,
      "ĠM": 356,
      "Ñģ": 357,
      "ĠI": 358,
      "Ã©": 359,
      "ĠĠĠ": 360,
      "qu": 361,
      "ãĥ": 362,
      "ir": 363,
      "ul": 364,
      "Ð¾Ð": 365,
      "ow": 366,
      "us": 367,
      "est": 368,
      "em": 369,
      "ers": 370,
      "ĠĠĠĠĠĠĠĠ": 371,
      "ĠP": 372,
      "Ġbe": 373,
      "Ġfor": 374,
      "ly": 375,
      "Ġr": 376,
      "Ġst": 377,
      "ĠB": 378,
      "Ġcon": 379,
      "th": 380,
      "ie": 381,
      "Ġy": 382,
      "Ġon": 383,
      "un": 384,
      "ter": 385,
      "od": 386,
      "if": 387,
      "ĠD": 388,
      "ag": 389,
      "Ġal": 390,
      "ay": 391,
      "ist": 392,
      "ess": 393,
      "ith": 394,
      "Ġthat": 395,
      "ab": 396,
      "20": 397,
      "Ġpro": 398,
      "um": 399,
      "Ġwh": 400,
      "Ġan": 401,
      "ĠL": 402,
      "ĠH": 403,
      "and": 404,
      "Ġas": 405,
      "ac": 406,
      "ĠE": 407,
      "ĠR": 408,
      "Ð»": 409,
      "ĠF": 410,
      "se": 411,
      "19": 412,
      "av": 413,
      "Ġen": 414,
      "Ġwith": 415,
      "ere": 416,
      "ĠG": 417,
      "ant": 418,
      "op": 419,
      "ver": 420,
      "Ġcom": 421,
      "ĠW": 422,
      "ci": 423,
      "Ġse": 424,
      "our": 425,
      "Ðº": 426,
      "ĠN": 427,
      "te": 428,
      "ri": 429,
      "ate": 430,
      "Ñĥ": 431,
      "Ġor": 432,
      "pe": 433,
      "ãĢ": 434,
      "Ġit": 435,
      "ill": 436,
      "Ġare": 437,
      "ich": 438,
      "Ġex": 439,
      "ĠThe": 440,
      "Ġsu": 441,
      "Ġk": 442,
      "Ġla": 443,
      "Ġle": 444,
      "Ġun": 445,
      "ort": 446,
      "ap": 447,
      "ud": 448,
      "Ġhe": 449,
      "art": 450,
      "og": 451,
      "Ġwas": 452,
      "Ð²": 453,
      "ak": 454,
      "rom": 455,
      "ment": 456,
      "ain": 457,
      "end": 458,
      "ity": 459,
      "igh": 460,
      "ĠJ": 461,
      "Ġat": 462,
      "ĠĠĠĠĠĠĠ": 463,
      "ell": 464,
      "oc": 465,
      "Ġqu": 466,
      "Ġby": 467,
      "ies": 468,
      "ĠĊ": 469,
      "Ġne": 470,
      "ia": 471,
      "ld": 472,
      ";Ċ": 473,
      "ive": 474,
      "ine": 475,
      "ge": 476,
      "Ø§": 477,
      "Ġch": 478,
      "ction": 479,
      "ĠO": 480,
      "pl": 481,
      "ore": 482,
      "ĠK": 483,
      "ure": 484,
      "all": 485,
      "ĠâĢ": 486,
      "Ġfrom": 487,
      "Ñı": 488,
      "Ñĸ": 489,
      "pt": 490,
      "Ð¼": 491,
      "Ð´": 492,
      "iz": 493,
      "âĢĻ": 494,
      "Ġj": 495,
      "Ġ\"": 496,
      "ans": 497,
      "ov": 498,
      "ost": 499,
      "ave": 500,
      "Ġpr": 501,
      "ĠU": 502,
      "ass": 503,
      "ru": 504,
      "ber": 505,
      "per": 506,
      "ard": 507,
      "Ã³": 508,
      "Ġyou": 509,
      "Ġcan": 510,
      "ect": 511,
      "Ġim": 512,
      "Ġnot": 513,
      ")Ċ": 514,
      "ff": 515,
      "ight": 516,
      "Ġpl": 517,
      "ĠV": 518,
      "Ã¡": 519,
      "ical": 520,
      "ÙĦ": 521,
      "Ġwe": 522,
      "201": 523,
      "pp": 524,
      "rou": 525,
      "Ġsh": 526,
      "ub": 527,
      "ast": 528,
      "ĠIn": 529,
      "ach": 530,
      "ĠÃ": 531,
      "Ġthis": 532,
      "Ġdes": 533,
      "ust": 534,
      "ÑģÑĤ": 535,
      "ue": 536,
      "ĠÐ¿": 537,
      "Ġres": 538,
      "ä¸": 539,
      "ens": 540,
      "ult": 541,
      "ne": 542,
      "Ġund": 543,
      "Ġì": 544,
      "ire": 545,
      "age": 546,
      "ated": 547,
      "ÃŃ": 548,
      "ind": 549,
      "Ġ=": 550,
      "Ġhave": 551,
      "Ġab": 552,
      "ib": 553,
      "ik": 554,
      "00": 555,
      "Ġz": 556,
      "Ġ$": 557,
      "orm": 558,
      "cl": 559,
      "ord": 560,
      "ÑĮ": 561,
      "ok": 562,
      "Ġcl": 563,
      "ip": 564,
      "out": 565,
      "nt": 566,
      "ame": 567,
      "ous": 568,
      "gh": 569,
      "ome": 570,
      "are": 571,
      "ial": 572,
      "ĠÐ²": 573,
      "du": 574,
      "so": 575,
      "Ġcomp": 576,
      "Ġ\\": 577,
      "ath": 578,
      "ould": 579,
      "Ġus": 580,
      "ide": 581,
      "ear": 582,
      "ãģ®": 583,
      "ï¼": 584,
      "200": 585,
      "ĠSt": 586,
      "ence": 587,
      "cc": 588,
      "'s": 589,
      "Ġcont": 590,
      "ÑĢÐ°": 591,
      "ong": 592,
      "Ġper": 593,
      "to": 594,
      "ãĢģ": 595,
      "ĠTh": 596,
      "The": 597,
      "act": 598,
      "fer": 599,
      "Ġso": 600,
      "pr": 601,
      "Ġad": 602,
      "ents": 603,
      "}Ċ": 604,
      "ang": 605,
      "Ã¤": 606,
      "able": 607,
      "),": 608,
      "Ñĩ": 609,
      "ph": 610,
      "Ġdo": 611,
      "Ġall": 612,
      "ions": 613,
      "Ñĭ": 614,
      "Ð½Ð¸": 615,
      "Ġel": 616,
      "ther": 617,
      "ign": 618,
      "port": 619,
      "ĠĠĠĠĠĠĠĠĠĠĠ": 620,
      "Ġtr": 621,
      "Ġme": 622,
      "ve": 623,
      "ite": 624,
      "ary": 625,
      "Ġet": 626,
      "ack": 627,
      "ork": 628,
      "ĉĉ": 629,
      "Ð¾Ð²": 630,
      "ations": 631,
      "18": 632,
      "Ġdis": 633,
      "de": 634,
      "con": 635,
      "ĠÑģ": 636,
      "Ġar": 637,
      "ice": 638,
      "Ġder": 639,
      "Ġ-": 640,
      "Ã¼": 641,
      "ance": 642,
      "Ġwhich": 643,
      "ier": 644,
      "ase": 645,
      "ãĢĤ": 646,
      "Ġpar": 647,
      "Ġtheir": 648,
      "Ð·": 649,
      "ual": 650,
      "Ġte": 651,
      ");Ċ": 652,
      "Ð¹": 653,
      "10": 654,
      "ÙĬ": 655,
      "ĠCh": 656,
      "ry": 657,
      "ace": 658,
      "Ð¿": 659,
      "che": 660,
      "int": 661,
      "Ġque": 662,
      "eg": 663,
      "ces": 664,
      "Ġwere": 665,
      "ile": 666,
      "ung": 667,
      "ood": 668,
      "Ġest": 669,
      "io": 670,
      "âĢĻs": 671,
      "ild": 672,
      "one": 673,
      "ime": 674,
      "Ñħ": 675,
      "Ġman": 676,
      "Ġhas": 677,
      "--": 678,
      "Ġyour": 679,
      "Ġpre": 680,
      "ater": 681,
      "ob": 682,
      "ian": 683,
      "ition": 684,
      "Ġthey": 685,
      "mer": 686,
      "Ġwill": 687,
      "ors": 688,
      "ãģĦ": 689,
      ").": 690,
      "Ġpart": 691,
      "ck": 692,
      "vel": 693,
      "ĠØ": 694,
      "Ġ{": 695,
      "ĠÐ½": 696,
      "ï¼Į": 697,
      "form": 698,
      "Ø§ÙĦ": 699,
      "ep": 700,
      "Ùħ": 701,
      "Ġbut": 702,
      ">Ċ": 703,
      "ose": 704,
      "au": 705,
      "erv": 706,
      "ÐµÑĢ": 707,
      "Ġmore": 708,
      "Ġhis": 709,
      "ft": 710,
      "we": 711,
      "ll": 712,
      "aus": 713,
      "rit": 714,
      "Ã¶": 715,
      "//": 716,
      "Ġdi": 717,
      "Âł": 718,
      "ish": 719,
      "lic": 720,
      "Ð±": 721,
      "Ð³": 722,
      "Ġi": 723,
      "ew": 724,
      "ory": 725,
      "ric": 726,
      "ÐµÐ½": 727,
      "Ġë": 728,
      "Ġout": 729,
      "ìĿ": 730,
      "Ġro": 731,
      "Ġsp": 732,
      "ĠĠĠĠĠ": 733,
      "Ġone": 734,
      "Ġalso": 735,
      "ely": 736,
      "âĢĿ": 737,
      "ert": 738,
      "äº": 739,
      "ont": 740,
      "xt": 741,
      "Ġdel": 742,
      "ail": 743,
      "oth": 744,
      "ount": 745,
      "ãģ§": 746,
      "=\"": 747,
      "ĠâĢĵ": 748,
      "urn": 749,
      "Ġinter": 750,
      "erm": 751,
      "ÑĨ": 752,
      "ten": 753,
      "oll": 754,
      "ĠÐ¸": 755,
      "ake": 756,
      "ĠĠĠĠĠĠĠĠĠĠĠĠĠĠĠ": 757,
      "ãĥ¼": 758,
      "Ġpe": 759,
      "Ġev": 760,
      "ãģ«": 761,
      "olog": 762,
      "ys": 763,
      "gr": 764,
      "ĠÐ¾": 765,
      "ĠY": 766,
      "Ġ*": 767,
      "ound": 768,
      "ãģĹ": 769,
      "iss": 770,
      "own": 771,
      "Ġes": 772,
      "ata": 773,
      "Ġau": 774,
      "res": 775,
      "Ġdie": 776,
      "Ð¾ÑĢ": 777,
      "cre": 778,
      "ren": 779,
      "</": 780,
      "..": 781,
      "Ġam": 782,
      "Ð¾Ð´": 783,
      "ah": 784,
      "In": 785,
      "Ġup": 786,
      "Ġif": 787,
      "ĠUn": 788,
      "Ġcomm": 789,
      "æľ": 790,
      "ook": 791,
      "ÙĪ": 792,
      "ien": 793,
      "Ġno": 794,
      "ons": 795,
      "çļ": 796,
      "ĠØ§ÙĦ": 797,
      "reat": 798,
      "Ð°Ð½": 799,
      "ific": 800,
      "ple": 801,
      "Ġsy": 802,
      "Ġstud": 803,
      "com": 804,
      "ĠÐº": 805,
      "ree": 806,
      "ran": 807,
      "cial": 808,
      "Ã¨": 809,
      "ĠIt": 810,
      "Ġother": 811,
      "Ġer": 812,
      "ÙĨ": 813,
      "Ð¾Ð¼": 814,
      "Ġwho": 815,
      "çļĦ": 816,
      "ãģ¦": 817,
      "ond": 818,
      "Ġhad": 819,
      "over": 820,
      "ark": 821,
      "eth": 822,
      "iel": 823,
      "Ġag": 824,
      "Ġob": 825,
      "ings": 826,
      "Ġ{Ċ": 827,
      "ãģ¨": 828,
      "Ġspe": 829,
      "ÑģÐº": 830,
      "Ð°Ð»": 831,
      "les": 832,
      ":Ċ": 833,
      "ink": 834,
      "Ġwork": 835,
      "Ġabout": 836,
      "ates": 837,
      "ade": 838,
      "ĠÃł": 839,
      "Ã³n": 840,
      "Ð¾Ð»": 841,
      "ern": 842,
      "199": 843,
      "ãģĻ": 844,
      "ise": 845,
      "ject": 846,
      "Ġcons": 847,
      "ĠÐ´": 848,
      "row": 849,
      "ement": 850,
      "Ġits": 851,
      "||": 852,
      "ient": 853,
      "Ġem": 854,
      "und": 855,
      "que": 856,
      "åı": 857,
      "ied": 858,
      "ays": 859,
      "Ġnew": 860,
      "ann": 861,
      "Ø§Ø": 862,
      "ale": 863,
      "old": 864,
      "Ġgen": 865,
      "Ġdif": 866,
      "rib": 867,
      "az": 868,
      "ãĤĭ": 869,
      "ĠâĢľ": 870,
      "ps": 871,
      "ãģª": 872,
      "12": 873,
      "Ġver": 874,
      "ari": 875,
      "Ġthem": 876,
      "Ð¾Ð³": 877,
      "ĠÐ½Ð°": 878,
      "irst": 879,
      "Ġbeen": 880,
      "ng": 881,
      "clud": 882,
      "Ġtra": 883,
      "ug": 884,
      "15": 885,
      "åħ": 886,
      "ãģĮ": 887,
      "ãģŁ": 888,
      "Ġbl": 889,
      "Ġover": 890,
      "Ġsa": 891,
      "Ġsur": 892,
      "Ġtime": 893,
      "ick": 894,
      "ĠZ": 895,
      "lect": 896,
      "ä»": 897,
      "Ġthan": 898,
      "Ġmay": 899,
      "Ġ&": 900,
      "Ġact": 901,
      "Ġwhen": 902,
      "Ã©s": 903,
      "ĠHe": 904,
      "tern": 905,
      "ough": 906,
      "âĢĵ": 907,
      "pro": 908,
      "Ġacc": 909,
      "Ġbet": 910,
      "wo": 911,
      "Ġthere": 912,
      "ãĤĴ": 913,
      "ÑĢÐµ": 914,
      "ĠRe": 915,
      "17": 916,
      "ĠÂ": 917,
      "Ġinto": 918,
      "tt": 919,
      ",Ċ": 920,
      "Ġrel": 921,
      "Ġyear": 922,
      "âĢĶ": 923,
      "ãģ¯": 924,
      "ople": 925,
      "ins": 926,
      "Ġ<": 927,
      "Ġsome": 928,
      "ational": 929,
      "_{": 930,
      "ss": 931,
      "ÑĪ": 932,
      "Ġfl": 933,
      "Ġreg": 934,
      "ock": 935,
      "ular": 936,
      "ĠĠĠĠĠĠĠĠĠ": 937,
      "inal": 938,
      "Ñİ": 939,
      "ts": 940,
      "ãģ¾": 941,
      "16": 942,
      "å¤": 943,
      "ike": 944,
      "Ġpo": 945,
      "Ġent": 946,
      "stem": 947,
      "ivers": 948,
      "Ġher": 949,
      "Ġkn": 950,
      "Ġ'": 951,
      "çĶ": 952,
      "ÑĢÐ¸": 953,
      "Ġ:": 954,
      "ced": 955,
      "å®": 956,
      "aj": 957,
      "Ġind": 958,
      "Ġrec": 959,
      "arg": 960,
      "fter": 961,
      "**": 962,
      "oss": 963,
      "Ġra": 964,
      "ÅĤ": 965,
      "ãĥ³": 966,
      "Ġmod": 967,
      "ublic": 968,
      "ĠThis": 969,
      "Ġph": 970,
      "Ġbec": 971,
      "Ð¾Ð½": 972,
      "ÑĤÐ°": 973,
      "Ġcol": 974,
      "Ġles": 975,
      "me": 976,
      "ma": 977,
      "ÐµÐ»": 978,
      "sp": 979,
      "eb": 980,
      "rough": 981,
      "cess": 982,
      "uch": 983,
      "Ġret": 984,
      "als": 985,
      "elf": 986,
      "ĠÐ·": 987,
      "Ø±": 988,
      "Ġunder": 989,
      "ĠAl": 990,
      "Ġprodu": 991,
      "Ġdu": 992,
      "Ġour": 993,
      "Ġapp": 994,
      "Ð¶": 995,
      "ring": 996,
      "ool": 997,
      "Ġwould": 998,
      "ĠÐ³": 999,
      "land": 1000,
      "íķ": 1001,
      "Ġein": 1002,
      "ics": 1003,
      "St": 1004,
      "der": 1005,
      "Ġint": 1006,
      "ĠAr": 1007,
      "Ġfirst": 1008,
      "Ġfe": 1009,
      "ause": 1010,
      "its": 1011,
      "ex": 1012,
      "Ġap": 1013,
      "Ġclass": 1014,
      "ĠDe": 1015,
      "Ġuse": 1016,
      "Ġthese": 1017,
      "Ġpeople": 1018,
      "ke": 1019,
      "ĠÐ¼": 1020,
      "åĪ": 1021,
      "Ġany": 1022,
      "oy": 1023,
      "ĠÃ©": 1024,
      "Ġeff": 1025,
      "Ġprov": 1026,
      "Ġsc": 1027,
      "Ġmost": 1028,
      "Ġatt": 1029,
      "Ġhow": 1030,
      "13": 1031,
      "ype": 1032,
      "Ġform": 1033,
      "ities": 1034,
      "14": 1035,
      "Ġinclud": 1036,
      "Ġac": 1037,
      "ative": 1038,
      "ĠSe": 1039,
      "ble": 1040,
      "ett": 1041,
      "ze": 1042,
      "arn": 1043,
      "li": 1044,
      "itt": 1045,
      "Ġtwo": 1046,
      "Th": 1047,
      "ident": 1048,
      "Ġonly": 1049,
      "cy": 1050,
      "Ġsub": 1051,
      "Ġpres": 1052,
      "ä½": 1053,
      "Ġê": 1054,
      "ating": 1055,
      "up": 1056,
      "orn": 1057,
      "Ġsuch": 1058,
      "oh": 1059,
      "erson": 1060,
      "round": 1061,
      "Ġav": 1062,
      "velop": 1063,
      "ĠPro": 1064,
      "Ġden": 1065,
      "Ġgr": 1066,
      "pect": 1067,
      "Ġhigh": 1068,
      "cept": 1069,
      "ased": 1070,
      "gan": 1071,
      "Ġinv": 1072,
      "alth": 1073,
      "Ġpol": 1074,
      "ÑĤÐ¸": 1075,
      "iew": 1076,
      "Ġtrans": 1077,
      "ix": 1078,
      "ars": 1079,
      "hed": 1080,
      "Ø©": 1081,
      "Ġmed": 1082,
      "ode": 1083,
      "ĠWh": 1084,
      "ism": 1085,
      "ally": 1086,
      "ado": 1087,
      "ress": 1088,
      "ures": 1089,
      "ek": 1090,
      "ĠAn": 1091,
      "Ġused": 1092,
      "ower": 1093,
      "Ġneed": 1094,
      "Ġdur": 1095,
      "red": 1096,
      "ution": 1097,
      "ÑĦ": 1098,
      "198": 1099,
      "Ġdiffer": 1100,
      "æĸ": 1101,
      "åĲ": 1102,
      "Ġass": 1103,
      "ĠÐ±": 1104,
      "ible": 1105,
      "Ġ[": 1106,
      "par": 1107,
      "Ð½Ð°": 1108,
      "Ġrem": 1109,
      "\"Ċ": 1110,
      "Ġoff": 1111,
      "ict": 1112,
      "Ġadd": 1113,
      "att": 1114,
      "pos": 1115,
      "uc": 1116,
      "ull": 1117,
      "be": 1118,
      "Ġwhat": 1119,
      "Re": 1120,
      "wn": 1121,
      "Ġval": 1122,
      "ij": 1123,
      "orld": 1124,
      "Ġthrough": 1125,
      "ĠCom": 1126,
      "ĠLe": 1127,
      "Ġdef": 1128,
      "ility": 1129,
      "Ġ}Ċ": 1130,
      "11": 1131,
      "cent": 1132,
      "ize": 1133,
      ").Ċ": 1134,
      "Ġche": 1135,
      "ica": 1136,
      "Ġgo": 1137,
      "Ġser": 1138,
      "Ġdem": 1139,
      "Ġinf": 1140,
      "vent": 1141,
      "ove": 1142,
      "ween": 1143,
      "ife": 1144,
      "Ġnum": 1145,
      "Ġsch": 1146,
      "ants": 1147,
      "iÃ³n": 1148,
      "ëĭ": 1149,
      "Ġhel": 1150,
      "ĠØ§ÙĦØ": 1151,
      "ina": 1152,
      "Ġaut": 1153,
      "Ġlos": 1154,
      "{\\": 1155,
      "Ġinst": 1156,
      "gen": 1157,
      "fore": 1158,
      "uss": 1159,
      "Ġvon": 1160,
      "let": 1161,
      "ĠSch": 1162,
      "30": 1163,
      "ful": 1164,
      "ines": 1165,
      "ments": 1166,
      "ange": 1167,
      "ĠÑĥ": 1168,
      "amil": 1169,
      "Ð»Ð°": 1170,
      "Ġlike": 1171,
      "Ġget": 1172,
      "sk": 1173,
      "Ġbu": 1174,
      "unction": 1175,
      "ada": 1176,
      "Ġsystem": 1177,
      "----": 1178,
      "Ġchild": 1179,
      "Ġcar": 1180,
      "ited": 1181,
      "ract": 1182,
      "ene": 1183,
      "Ġbetween": 1184,
      "chn": 1185,
      "ãģĭ": 1186,
      "Ġsm": 1187,
      "Ġshe": 1188,
      "ta": 1189,
      "Ð½Ð¾": 1190,
      "hr": 1191,
      "amp": 1192,
      "air": 1193,
      "Ġwhere": 1194,
      "Ġdet": 1195,
      "Ġmany": 1196,
      "25": 1197,
      "ues": 1198,
      "Ġed": 1199,
      "Ġ.": 1200,
      "erg": 1201,
      "Ġpat": 1202,
      "ãĤĬ": 1203,
      "Ġdevelop": 1204,
      "els": 1205,
      "Ġ||": 1206,
      "Ð½Ñĭ": 1207,
      "Ġdist": 1208,
      "Ð¾Ð¹": 1209,
      "ron": 1210,
      "Ð»Ð¸": 1211,
      "ÐµÑĤ": 1212,
      "Ġwell": 1213,
      "earch": 1214,
      "Ġsim": 1215,
      "Ð¾Ð³Ð¾": 1216,
      "202": 1217,
      "ax": 1218,
      "Ġafter": 1219,
      "yp": 1220,
      "isch": 1221,
      "Ġsign": 1222,
      "197": 1223,
      "Ġresult": 1224,
      "Ġke": 1225,
      "Ġmy": 1226,
      "Ġco": 1227,
      "Ġ,": 1228,
      "raph": 1229,
      "emb": 1230,
      "ute": 1231,
      "ider": 1232,
      "aw": 1233,
      "==": 1234,
      "ĠÂ«": 1235,
      "Ġconst": 1236,
      "Ġcould": 1237,
      "Ġcent": 1238,
      "ature": 1239,
      "Ġext": 1240,
      "Ġloc": 1241,
      "ãĤ¹": 1242,
      "Ð²Ð°": 1243,
      "ãĤĤ": 1244,
      "ession": 1245,
      "Ã¼r": 1246,
      "Ġgener": 1247,
      "uro": 1248,
      "Ġmin": 1249,
      "ral": 1250,
      "Ġpublic": 1251,
      "Ġshould": 1252,
      "ÐºÐ°": 1253,
      "ious": 1254,
      "any": 1255,
      "Ġthen": 1256,
      "Ġpor": 1257,
      "åľ": 1258,
      "Ġever": 1259,
      "eng": 1260,
      "ever": 1261,
      "Ġ$\\": 1262,
      "Ġend": 1263,
      "ollow": 1264,
      "get": 1265,
      "Ġsupp": 1266,
      "ãĥ¼ãĥ": 1267,
      "ield": 1268,
      "arm": 1269,
      "ward": 1270,
      "Ġmon": 1271,
      "Ġil": 1272,
      "Ġimport": 1273,
      "urs": 1274,
      "ĠWe": 1275,
      "Ùģ": 1276,
      "amb": 1277,
      "Ġyears": 1278,
      "ãĢĤĊ": 1279,
      "Ġuna": 1280,
      "Ġop": 1281,
      "ĠAs": 1282,
      "?Ċ": 1283,
      "ruct": 1284,
      "ural": 1285,
      "Ġlong": 1286,
      "app": 1287,
      "Ġreturn": 1288,
      "ember": 1289,
      "ament": 1290,
      "æĹ": 1291,
      "ãģ£": 1292,
      "Ġcor": 1293,
      "sc": 1294,
      "Øª": 1295,
      "()": 1296,
      "ages": 1297,
      "Ġpartic": 1298,
      "ology": 1299,
      "Ġhelp": 1300,
      "den": 1301,
      "ĠÑĤ": 1302,
      "Ġjust": 1303,
      "ique": 1304,
      "å¹": 1305,
      "Ġsol": 1306,
      "ets": 1307,
      "ãĤĮ": 1308,
      "åĬ": 1309,
      "Ġperson": 1310,
      "ÐºÐ¸": 1311,
      "åĽ": 1312,
      "ĠAmer": 1313,
      "Ġserv": 1314,
      "ctions": 1315,
      "ists": 1316,
      "Ġdata": 1317,
      "ĠMar": 1318,
      "the": 1319,
      "Ġmit": 1320,
      "Ġart": 1321,
      "Ð¾Ñģ": 1322,
      "other": 1323,
      "Ġmake": 1324,
      "24": 1325,
      "Ġmet": 1326,
      "ym": 1327,
      "è¿": 1328,
      "Ġvari": 1329,
      "ven": 1330,
      "Ùĩ": 1331,
      "Ġfound": 1332,
      "Ø¯": 1333,
      "Ã§": 1334,
      "Ġinform": 1335,
      "lo": 1336,
      "50": 1337,
      "til": 1338,
      "Ġcre": 1339,
      "Â»": 1340,
      "Ġknow": 1341,
      "ais": 1342,
      "Ġexper": 1343,
      "Ġsaid": 1344,
      "ĠBe": 1345,
      "Ġdifferent": 1346,
      "196": 1347,
      ".,": 1348,
      "lich": 1349,
      "Ġrequ": 1350,
      "Ð¸ÑĤ": 1351,
      "ĠÐ¡": 1352,
      "plic": 1353,
      "inn": 1354,
      "ger": 1355,
      "ìĹ": 1356,
      "Ġfil": 1357,
      "led": 1358,
      "imes": 1359,
      "Ġfollow": 1360,
      "Ġeffect": 1361,
      "Ġdire": 1362,
      "ices": 1363,
      "ÐµÐ½Ð¸": 1364,
      "gram": 1365,
      "math": 1366,
      "Ġcall": 1367,
      "Ġbel": 1368,
      "ãģĨ": 1369,
      "ives": 1370,
      "ats": 1371,
      "000": 1372,
      "hip": 1373,
      "ank": 1374,
      "Wh": 1375,
      "ĠÐ°": 1376,
      "\",": 1377,
      "of": 1378,
      "Ġincre": 1379,
      "ody": 1380,
      "ĠNew": 1381,
      "Ġwater": 1382,
      "ized": 1383,
      "text": 1384,
      "Ġsk": 1385,
      "put": 1386,
      "ator": 1387,
      "Ġhim": 1388,
      "ĠFor": 1389,
      "ref": 1390,
      "Ġback": 1391,
      "ĠQ": 1392,
      "ãĤī": 1393,
      "Ġeach": 1394,
      "roup": 1395,
      "ret": 1396,
      "Ùĥ": 1397,
      "ãĤ¤": 1398,
      "cond": 1399,
      "'t": 1400,
      "ually": 1401,
      "Ð°ÑĢ": 1402,
      "Ġhealth": 1403,
      "ash": 1404,
      "Ġcap": 1405,
      "Ġ/": 1406,
      "Ġdec": 1407,
      "Ñī": 1408,
      "ms": 1409,
      "ences": 1410,
      "ole": 1411,
      "oid": 1412,
      "Ġshow": 1413,
      "min": 1414,
      "ÐµÐ¼": 1415,
      "ican": 1416,
      "æĺ": 1417,
      "Ġeven": 1418,
      "ined": 1419,
      "Ġcur": 1420,
      "line": 1421,
      "cer": 1422,
      "Ġexam": 1423,
      "une": 1424,
      "Ġfamil": 1425,
      "Ġtest": 1426,
      "Ġsl": 1427,
      "Ġbecause": 1428,
      "ional": 1429,
      "Ã©e": 1430,
      "Ġplay": 1431,
      "Ġpour": 1432,
      "man": 1433,
      "ases": 1434,
      "ä¼": 1435,
      "ty": 1436,
      "aking": 1437,
      "ically": 1438,
      "sch": 1439,
      "Ġcount": 1440,
      "ince": 1441,
      "Ġvery": 1442,
      "Ġpop": 1443,
      "val": 1444,
      "Ġtem": 1445,
      "Ġfunction": 1446,
      "ĠSp": 1447,
      "ior": 1448,
      "194": 1449,
      "ĠSh": 1450,
      "rent": 1451,
      "Ġpara": 1452,
      "Ġhum": 1453,
      "ãģĵ": 1454,
      "arly": 1455,
      "Ġfact": 1456,
      "åŃ": 1457,
      "Ġway": 1458,
      "ĠdÃ©": 1459,
      "ÙĤ": 1460,
      "ision": 1461,
      "ĠÐ·Ð°": 1462,
      "Ġsom": 1463,
      "icht": 1464,
      "Ġgu": 1465,
      "Ġresp": 1466,
      "23": 1467,
      "rol": 1468,
      "ãĥĪ": 1469,
      "Ġhist": 1470,
      "Ġmuch": 1471,
      "Ġevery": 1472,
      "ox": 1473,
      "ved": 1474,
      "ĠCl": 1475,
      "Ġconf": 1476,
      "read": 1477,
      "Ġgl": 1478,
      "iter": 1479,
      "ton": 1480,
      "ĠEn": 1481,
      "enn": 1482,
      "ather": 1483,
      "-b": 1484,
      "æĪ": 1485,
      "ÃŁ": 1486,
      "ĠInd": 1487,
      "ety": 1488,
      "gg": 1489,
      "iver": 1490,
      "Ã±": 1491,
      "Ġusing": 1492,
      "Ġbeing": 1493,
      "Ġlas": 1494,
      "Ġprocess": 1495,
      "Ñĺ": 1496,
      "Ġstat": 1497,
      "Ġda": 1498,
      "Ġdr": 1499,
      "Ġfind": 1500,
      "hes": 1501,
      "ital": 1502,
      "isk": 1503,
      "Ð¾Ðº": 1504,
      "Ġdisc": 1505,
      "iversity": 1506,
      "Ġdon": 1507,
      "Ġcell": 1508,
      "Ð°ÑĤ": 1509,
      "Ġ+": 1510,
      "Ġstr": 1511,
      "Ġduring": 1512,
      "ript": 1513,
      "éĢ": 1514,
      "ãĥĥ": 1515,
      "ec": 1516,
      "yn": 1517,
      "22": 1518,
      "ĠCon": 1519,
      "Ġset": 1520,
      "Ġpos": 1521,
      "-s": 1522,
      "ĠÙħ": 1523,
      "Ġthose": 1524,
      "Ð¾ÑĤ": 1525,
      "rop": 1526,
      "aut": 1527,
      "Ġ//": 1528,
      "Ġagain": 1529,
      "Ġworld": 1530,
      "\">": 1531,
      "Ġstudy": 1532,
      "ÃŃa": 1533,
      "ĠÐĴ": 1534,
      "Ġcommun": 1535,
      "agn": 1536,
      "Ġprote": 1537,
      "ray": 1538,
      "Ø¹": 1539,
      "->": 1540,
      "kt": 1541,
      "Ġsame": 1542,
      "ÐµÐ´": 1543,
      "ethod": 1544,
      "}\\": 1545,
      "Ġmade": 1546,
      "Ġdans": 1547,
      "atch": 1548,
      "ĠX": 1549,
      "ird": 1550,
      "pres": 1551,
      "vers": 1552,
      "iron": 1553,
      "Ð¼Ð¸": 1554,
      "Ex": 1555,
      "overn": 1556,
      "ÑĨÐ¸": 1557,
      "Ġboth": 1558,
      "Ġmus": 1559,
      "Ġimportant": 1560,
      "Ġread": 1561,
      "Ġown": 1562,
      "Ġzu": 1563,
      "tr": 1564,
      "aciÃ³n": 1565,
      "ivid": 1566,
      "Ġvan": 1567,
      "ames": 1568,
      "Ġlo": 1569,
      "Ø¨": 1570,
      "ste": 1571,
      "ato": 1572,
      "ER": 1573,
      "ished": 1574,
      "Ġbefore": 1575,
      "co": 1576,
      "omen": 1577,
      "ëĭ¤": 1578,
      "Ġnumber": 1579,
      "195": 1580,
      "Ã¥": 1581,
      "Ġins": 1582,
      "Ġright": 1583,
      "Ġlead": 1584,
      "go": 1585,
      "ĠAnd": 1586,
      "ãģı": 1587,
      "ìĿ´": 1588,
      "Ġhand": 1589,
      "Ã¡s": 1590,
      "Ġune": 1591,
      "åº": 1592,
      "âĢĻt": 1593,
      "Ġele": 1594,
      "100": 1595,
      "ĠLa": 1596,
      "Ġresearch": 1597,
      "rie": 1598,
      "ĠAd": 1599,
      "Ġtechn": 1600,
      "way": 1601,
      "right": 1602,
      "Ġwar": 1603,
      "Ġlife": 1604,
      "ÑĹ": 1605,
      "ouse": 1606,
      "40": 1607,
      "ä¸Ģ": 1608,
      "ĠPl": 1609,
      "Ġlearn": 1610,
      "ai": 1611,
      "ĠÐļ": 1612,
      "ÄĻ": 1613,
      "ulation": 1614,
      "Ġna": 1615,
      "26": 1616,
      "}$": 1617,
      "Ġlevel": 1618,
      "Ġmain": 1619,
      "ury": 1620,
      "ness": 1621,
      "Ġí": 1622,
      "pend": 1623,
      "arge": 1624,
      "Ġposs": 1625,
      "Ġorgan": 1626,
      "ument": 1627,
      "Ġpoint": 1628,
      "Ġsee": 1629,
      "ner": 1630,
      "Ġprof": 1631,
      "Ġauf": 1632,
      "äºº": 1633,
      "ãģ¾ãģĻ": 1634,
      "å°": 1635,
      "ĠÐŁ": 1636,
      "28": 1637,
      "^{": 1638,
      "::": 1639,
      "ium": 1640,
      "27": 1641,
      "ëĬ": 1642,
      "Ġlook": 1643,
      "Ġequ": 1644,
      "Ð¸Ð½": 1645,
      "ott": 1646,
      "ĠÑĩ": 1647,
      "ÑĢÑĥ": 1648,
      "Äħ": 1649,
      "Ġreal": 1650,
      "na": 1651,
      "Ġson": 1652,
      "Ġname": 1653,
      "Ġstart": 1654,
      "iqu": 1655,
      "åį": 1656,
      "Ġwhile": 1657,
      "ux": 1658,
      "ared": 1659,
      "ĠTe": 1660,
      "Äį": 1661,
      "oot": 1662,
      "oun": 1663,
      "Ġdas": 1664,
      "Ġnow": 1665,
      "éĩ": 1666,
      "Ġist": 1667,
      "è¡": 1668,
      "æĿ": 1669,
      "Ġ|": 1670,
      "Ġdid": 1671,
      "ĠSo": 1672,
      "ource": 1673,
      "ico": 1674,
      "ote": 1675,
      "Ġdoes": 1676,
      "å¸": 1677,
      "iven": 1678,
      "ĠâĢĶ": 1679,
      "ÑģÑı": 1680,
      "ĠIf": 1681,
      "ait": 1682,
      "Ġgood": 1683,
      "Ġproble": 1684,
      "Ġsi": 1685,
      "Ġmar": 1686,
      "Ġant": 1687,
      "Ġactiv": 1688,
      "ains": 1689,
      "ê³": 1690,
      "Ãº": 1691,
      "ential": 1692,
      "193": 1693,
      "work": 1694,
      "stand": 1695,
      "21": 1696,
      "60": 1697,
      "eh": 1698,
      "eter": 1699,
      "Ã©n": 1700,
      "por": 1701,
      "Ġinformation": 1702,
      "Ġthree": 1703,
      "Ġvis": 1704,
      "ross": 1705,
      "ĠPh": 1706,
      "Ġdown": 1707,
      "Ġprogram": 1708,
      "æī": 1709,
      "Ġsmall": 1710,
      "ÑģÑĮ": 1711,
      "ĠHow": 1712,
      "orth": 1713,
      "soci": 1714,
      "ĠThey": 1715,
      "men": 1716,
      "Ãł": 1717,
      "Ġcond": 1718,
      "Ġchildren": 1719,
      "ograph": 1720,
      "Ġnon": 1721,
      "alk": 1722,
      "Ġfin": 1723,
      "ãģį": 1724,
      "bre": 1725,
      "ĠÙĪ": 1726,
      "ëĬĶ": 1727,
      "ella": 1728,
      "Ġpass": 1729,
      "Ġcontin": 1730,
      "ane": 1731,
      "acter": 1732,
      "rist": 1733,
      "29": 1734,
      "ç»": 1735,
      "itions": 1736,
      "Ġbest": 1737,
      "ĠEl": 1738,
      "ves": 1739,
      "rain": 1740,
      "iving": 1741,
      "ĠÐ¿ÑĢ": 1742,
      "Ġterm": 1743,
      "ason": 1744,
      "Ġdesc": 1745,
      "ĠOr": 1746,
      "åĨ": 1747,
      "cia": 1748,
      "Ġje": 1749,
      "Ġpresent": 1750,
      "ĠIs": 1751,
      "Ġexpl": 1752,
      "Ġschool": 1753,
      "ĠfÃ¼r": 1754,
      "cies": 1755,
      "outh": 1756,
      "Ġsupport": 1757,
      "ides": 1758,
      "Ġconsider": 1759,
      "Ġfr": 1760,
      "Ġvers": 1761,
      "Ġ@": 1762,
      "âĢľ": 1763,
      "view": 1764,
      "ired": 1765,
      "ante": 1766,
      "ask": 1767,
      "Ġimp": 1768,
      "Ġocc": 1769,
      "Ã¶r": 1770,
      "ãĥ«": 1771,
      "Ġanal": 1772,
      "ization": 1773,
      "ĉĉĉĉ": 1774,
      "Ġbre": 1775,
      "era": 1776,
      "Ø³": 1777,
      "rac": 1778,
      "Ġrest": 1779,
      "org": 1780,
      "Ġcare": 1781,
      "ients": 1782,
      "è¦": 1783,
      "Ġday": 1784,
      "Ġcour": 1785,
      "IN": 1786,
      "Ġgrow": 1787,
      "Ġdesign": 1788,
      "uf": 1789,
      "wh": 1790,
      "viron": 1791,
      "col": 1792,
      "ãģĹãģ¦": 1793,
      "lt": 1794,
      "ler": 1795,
      "ĠYou": 1796,
      "Ã£": 1797,
      "It": 1798,
      "ĠÐľ": 1799,
      "lish": 1800,
      "Ġprim": 1801,
      "å¾": 1802,
      "ÑģÐºÐ¸": 1803,
      "af": 1804,
      "bs": 1805,
      "Ð¾Ð±": 1806,
      "Ġtreat": 1807,
      "ino": 1808,
      "Ġsit": 1809,
      "å¼": 1810,
      "Ġreport": 1811,
      "Ġvol": 1812,
      "Ġdirect": 1813,
      "ĠEx": 1814,
      "Ġlist": 1815,
      "ãģķ": 1816,
      "ãģĤ": 1817,
      "Ġmov": 1818,
      "Ð½Ñı": 1819,
      "åĮ": 1820,
      "ĠÑĢÐ°": 1821,
      "Ġref": 1822,
      "cul": 1823,
      "po": 1824,
      "-f": 1825,
      "ÄĽ": 1826,
      "(\"": 1827,
      "ida": 1828,
      "ä¹": 1829,
      "Ġ_": 1830,
      "ON": 1831,
      "za": 1832,
      "ĠPar": 1833,
      "Ġqui": 1834,
      "ãĤ¯": 1835,
      "Ġtake": 1836,
      "ÐµÐ¹": 1837,
      "hor": 1838,
      "ality": 1839,
      "Ġsecond": 1840,
      "ĠBl": 1841,
      "ĠPr": 1842,
      "tain": 1843,
      "ĠCol": 1844,
      "80": 1845,
      "ĠÑĢ": 1846,
      "Ð»ÑĮ": 1847,
      "abel": 1848,
      "ener": 1849,
      "æĢ": 1850,
      "lex": 1851,
      "ĠrÃ©": 1852,
      "sh": 1853,
      "Ġaff": 1854,
      "å·": 1855,
      "ĠOn": 1856,
      "ĠUniversity": 1857,
      "Ġword": 1858,
      "ĠÐ³Ð¾Ð´": 1859,
      "je": 1860,
      "ores": 1861,
      "Ġaround": 1862,
      "Pro": 1863,
      "med": 1864,
      "Ã¡n": 1865,
      "day": 1866,
      "ãĤĵ": 1867,
      "alt": 1868,
      "çĽ": 1869,
      "son": 1870,
      "cient": 1871,
      "èĢ": 1872,
      "Ġoper": 1873,
      "Ġpost": 1874,
      ".âĢĿ": 1875,
      "ä¸Ń": 1876,
      "ense": 1877,
      "rag": 1878,
      "Ġplace": 1879,
      "ohn": 1880,
      "ĠRes": 1881,
      "Ġhab": 1882,
      "ĠÑģÑĤ": 1883,
      "akes": 1884,
      "ales": 1885,
      "å¹´": 1886,
      "Ã£o": 1887,
      "atic": 1888,
      "set": 1889,
      "Ġcr": 1890,
      "Ġredu": 1891,
      "192": 1892,
      "Ġmen": 1893,
      "Ġwrit": 1894,
      "Ġappro": 1895,
      "leg": 1896,
      "ãĥ©": 1897,
      "ived": 1898,
      "ww": 1899,
      "ĠEng": 1900,
      "Ġmil": 1901,
      "Ð²Ð¸": 1902,
      "Ġpot": 1903,
      "åĩ": 1904,
      "fic": 1905,
      "Ġdise": 1906,
      "Ġstudents": 1907,
      "Ġfood": 1908,
      "Ġpower": 1909,
      "zy": 1910,
      "ĠAm": 1911,
      "Ãª": 1912,
      "Con": 1913,
      "Ġquest": 1914,
      "ãĥª": 1915,
      "lu": 1916,
      ".\"Ċ": 1917,
      "Ġchar": 1918,
      ".S": 1919,
      "Äĥ": 1920,
      "ccess": 1921,
      "Ġmat": 1922,
      "ando": 1923,
      "Ġstate": 1924,
      "ergy": 1925,
      "Å¡": 1926,
      "å¤§": 1927,
      "://": 1928,
      "ca": 1929,
      "æ°": 1930,
      "Ġtype": 1931,
      "ister": 1932,
      "Ġcle": 1933,
      "Ch": 1934,
      "iment": 1935,
      "Ġelect": 1936,
      "ission": 1937,
      "ĠBut": 1938,
      "ration": 1939,
      "ified": 1940,
      "Ġless": 1941,
      "This": 1942,
      "191": 1943,
      "ror": 1944,
      "Ġals": 1945,
      "Ġmust": 1946,
      "by": 1947,
      "Ġgovern": 1948,
      ".com": 1949,
      "ros": 1950,
      "Ġincluding": 1951,
      "Ġthough": 1952,
      "Ġorig": 1953,
      "Ġbeh": 1954,
      "();Ċ": 1955,
      "Ġcal": 1956,
      "ìĹĲ": 1957,
      "cal": 1958,
      "Ġspec": 1959,
      "Ġbuild": 1960,
      "AR": 1961,
      "Ġperform": 1962,
      "Ð¾ÑģÑĤ": 1963,
      "ìĦ": 1964,
      "uer": 1965,
      "ateg": 1966,
      "ana": 1967,
      "æķ": 1968,
      "use": 1969,
      "ĉĊ": 1970,
      "Ġstand": 1971,
      "ĠAmerican": 1972,
      "Ð¡": 1973,
      "90": 1974,
      "70": 1975,
      "Ġwant": 1976,
      "iod": 1977,
      "ĠThere": 1978,
      "Ġ}": 1979,
      "rem": 1980,
      "reg": 1981,
      "ule": 1982,
      "ively": 1983,
      "ido": 1984,
      "Ġident": 1985,
      "ê°": 1986,
      "Ġmark": 1987,
      "rue": 1988,
      "(\\": 1989,
      "å¯": 1990,
      "Ġoften": 1991,
      "ination": 1992,
      "ries": 1993,
      "Ġhuman": 1994,
      "Ġland": 1995,
      "aterial": 1996,
      "la": 1997,
      "conom": 1998,
      "Ġallow": 1999,
      "nal": 2000,
      "ãĤ¢": 2001,
      "Ð»Ñı": 2002,
      "idad": 2003,
      "ìł": 2004,
      "-t": 2005,
      "Ġgreat": 2006,
      "AT": 2007,
      "beg": 2008,
      "Ġstill": 2009,
      "Ġmethod": 2010,
      ",\"": 2011,
      "ãģĬ": 2012,
      "Ġgroup": 2013,
      "Ġself": 2014,
      "ione": 2015,
      "Ġce": 2016,
      "lev": 2017,
      "ĠEuro": 2018,
      "Ġbo": 2019,
      "ES": 2020,
      "ĠCar": 2021,
      "Ġbody": 2022,
      "Ġfinal": 2023,
      "Ġopt": 2024,
      "{e": 2025,
      "å±": 2026,
      "çĶ¨": 2027,
      "Ġdev": 2028,
      "ischen": 2029,
      "Ġann": 2030,
      "ui": 2031,
      "Ġcase": 2032,
      "ams": 2033,
      "ìŀ": 2034,
      "Ġvalue": 2035,
      "35": 2036,
      "Ġknown": 2037,
      "Ġthink": 2038,
      "ches": 2039,
      "Ġge": 2040,
      "Ġide": 2041,
      "Ġter": 2042,
      "iness": 2043,
      "yl": 2044,
      "Ġproduct": 2045,
      "Ġbas": 2046,
      "ots": 2047,
      "itive": 2048,
      "ĠEr": 2049,
      "ãģ§ãģĻ": 2050,
      "çī": 2051,
      "br": 2052,
      "ĠTr": 2053,
      "Ġadv": 2054,
      "Ġleg": 2055,
      "elle": 2056,
      "oph": 2057,
      "ÐµÐº": 2058,
      "è®": 2059,
      "str": 2060,
      "ych": 2061,
      "ify": 2062,
      "ãģĹãģŁ": 2063,
      "Ġorder": 2064,
      "æĹ¥": 2065,
      "vironment": 2066,
      "ĠMed": 2067,
      "igen": 2068,
      "ately": 2069,
      "ster": 2070,
      "Ñĳ": 2071,
      "De": 2072,
      "ios": 2073,
      "Ġwur": 2074,
      "ka": 2075,
      "ĠCan": 2076,
      "Ġcomo": 2077,
      "begin": 2078,
      "ĠÐĲ": 2079,
      "Ġgre": 2080,
      "--------": 2081,
      "ability": 2082,
      "We": 2083,
      "ĠFran": 2084,
      "fig": 2085,
      "ìĿĦ": 2086,
      "Ġcalled": 2087,
      "Ġchang": 2088,
      "ily": 2089,
      "fe": 2090,
      "Com": 2091,
      "Å¾": 2092,
      "Ġtyp": 2093,
      "ĠAll": 2094,
      "iet": 2095,
      "...": 2096,
      "Ar": 2097,
      "Ã©r": 2098,
      "ÐŁ": 2099,
      "-d": 2100,
      "Ð°Ð²": 2101,
      "Ġsocial": 2102,
      "ling": 2103,
      "Ġsich": 2104,
      "En": 2105,
      "Ġindivid": 2106,
      "}}": 2107,
      "amm": 2108,
      "Ġmaj": 2109,
      "Ġlarge": 2110,
      "Ð¾Ð·": 2111,
      "Ġaus": 2112,
      "ura": 2113,
      "Ġeng": 2114,
      "Ġinc": 2115,
      "Ġsing": 2116,
      "-m": 2117,
      "ones": 2118,
      "less": 2119,
      "ĠGr": 2120,
      "urch": 2121,
      "Ġexample": 2122,
      "Ġcommon": 2123,
      "33": 2124,
      "íķĺ": 2125,
      "urg": 2126,
      "ben": 2127,
      "Ã©t": 2128,
      "Ġwithout": 2129,
      "Ġbr": 2130,
      "å¿": 2131,
      "ertain": 2132,
      "ÑĸÐ²": 2133,
      "mp": 2134,
      "Ġenc": 2135,
      "45": 2136,
      "Ġwithin": 2137,
      "ãģ£ãģ¦": 2138,
      "irc": 2139,
      "ĠUS": 2140,
      "ĠBr": 2141,
      "Ġbook": 2142,
      "ering": 2143,
      "ì§": 2144,
      "åľ¨": 2145,
      "elt": 2146,
      "ĠÐ»": 2147,
      "Ġcult": 2148,
      "ano": 2149,
      "Ġmill": 2150,
      "ently": 2151,
      "part": 2152,
      "Ġlim": 2153,
      "ording": 2154,
      "Ġproper": 2155,
      "present": 2156,
      "Ġnat": 2157,
      "Ġlast": 2158,
      "!Ċ": 2159,
      "Ġum": 2160,
      "angu": 2161,
      "Ð°Ð½Ð¸": 2162,
      "è¯": 2163,
      "Å¼": 2164,
      "Ġlocal": 2165,
      "II": 2166,
      "Ġsignific": 2167,
      "Ġcontrol": 2168,
      "ours": 2169,
      "yd": 2170,
      "åĵ": 2171,
      "ried": 2172,
      "Ġfew": 2173,
      "ĠComm": 2174,
      "ĠAb": 2175,
      "AS": 2176,
      "ÐµÑģÑĤ": 2177,
      "Ġ#": 2178,
      "ÐµÐ²": 2179,
      "Ġhome": 2180,
      "Al": 2181,
      "ero": 2182,
      "Ġtop": 2183,
      "Ġrun": 2184,
      "ued": 2185,
      "aving": 2186,
      "stit": 2187,
      "Ġbus": 2188,
      "Ġeine": 2189,
      "ĠVer": 2190,
      "Ġvo": 2191,
      "lished": 2192,
      "Ġappe": 2193,
      "Ġpas": 2194,
      "Ġsever": 2195,
      "Ġeas": 2196,
      "ources": 2197,
      "cur": 2198,
      "ÅĻ": 2199,
      "Ġcaus": 2200,
      "éģ": 2201,
      "ĠGe": 2202,
      "ĠUnited": 2203,
      "Ġeduc": 2204,
      "ë¡": 2205,
      "æľī": 2206,
      "Ġmeas": 2207,
      "ĠÐĳ": 2208,
      "self": 2209,
      "/Ċ": 2210,
      "Ġhere": 2211,
      "ille": 2212,
      "Ġopen": 2213,
      "æł": 2214,
      "Ġexp": 2215,
      "Ġline": 2216,
      "ey": 2217,
      "ĠCent": 2218,
      "Ġbeg": 2219,
      "ples": 2220,
      "Ġfre": 2221,
      "Ġagainst": 2222,
      "Ġmight": 2223,
      "75": 2224,
      "__": 2225,
      "Ġpolit": 2226,
      "vec": 2227,
      "Ġplus": 2228,
      "ID": 2229,
      "Ġold": 2230,
      "for": 2231,
      "ison": 2232,
      "ãģł": 2233,
      "ç§": 2234,
      "ìĿĺ": 2235,
      "æĺ¯": 2236,
      "ml": 2237,
      "oms": 2238,
      "Ġtot": 2239,
      "ining": 2240,
      "Ġpract": 2241,
      "Ġcome": 2242,
      "no": 2243,
      "Ġhead": 2244,
      "Se": 2245,
      "ĠÑĦ": 2246,
      "zen": 2247,
      "da": 2248,
      "Ã¨re": 2249,
      "å½": 2250,
      "64": 2251,
      "roll": 2252,
      "æĬ": 2253,
      "inci": 2254,
      "Ġwer": 2255,
      "itÃ©": 2256,
      "65": 2257,
      "Ġfour": 2258,
      "itor": 2259,
      "ĠNe": 2260,
      "vol": 2261,
      "ØŃ": 2262,
      "cience": 2263,
      "Ġrisk": 2264,
      "ados": 2265,
      "ĠPol": 2266,
      "Ġarea": 2267,
      "Ġmult": 2268,
      "ĠÐ¾Ð±": 2269,
      "Ã¨s": 2270,
      "Ġanother": 2271,
      "Ġfollowing": 2272,
      "ley": 2273,
      "78": 2274,
      "ways": 2275,
      "As": 2276,
      "ball": 2277,
      "yle": 2278,
      "Ġcost": 2279,
      "import": 2280,
      "cing": 2281,
      "arch": 2282,
      "ÅĽ": 2283,
      "Ġchange": 2284,
      "ends": 2285,
      "****": 2286,
      "Ġiss": 2287,
      "eder": 2288,
      "icle": 2289,
      "ĠFr": 2290,
      "ystem": 2291,
      "Ġlight": 2292,
      "abor": 2293,
      "ope": 2294,
      "ids": 2295,
      "An": 2296,
      "Ġindividual": 2297,
      "ĠShe": 2298,
      "ãĤĪ": 2299,
      "Ġmodel": 2300,
      "ological": 2301,
      "ĠÐ¾ÑĤ": 2302,
      "Ġprom": 2303,
      "ĠAt": 2304,
      "esch": 2305,
      "och": 2306,
      ")$": 2307,
      "Ġãĥ": 2308,
      "Ġphys": 2309,
      "-l": 2310,
      "95": 2311,
      "Ġimpro": 2312,
      "fl": 2313,
      "ser": 2314,
      "Ġess": 2315,
      "190": 2316,
      "_{\\": 2317,
      "Refer": 2318,
      "ãģĳ": 2319,
      "Ġlink": 2320,
      "ience": 2321,
      "raw": 2322,
      "ks": 2323,
      "ĠÐ¿ÑĢÐ¸": 2324,
      "Ġproject": 2325,
      "ni": 2326,
      "Ġfac": 2327,
      "Ġsym": 2328,
      "ĠThese": 2329,
      "ĠìĿ": 2330,
      "Ġfamily": 2331,
      "Ġrad": 2332,
      "ift": 2333,
      "Ġcurrent": 2334,
      "Ġpriv": 2335,
      "ĠDie": 2336,
      "ĥ½": 2337,
      "('": 2338,
      "Ġstruct": 2339,
      "Ġmaterial": 2340,
      "lement": 2341,
      "Ġrece": 2342,
      "uring": 2343,
      "æ³": 2344,
      "Ġunderstand": 2345,
      "itional": 2346,
      "]Ċ": 2347,
      "va": 2348,
      "OR": 2349,
      "ised": 2350,
      "çĶŁ": 2351,
      "Ġfield": 2352,
      "Ġwomen": 2353,
      "ĠÐµ": 2354,
      "Ĥ¬": 2355,
      "gl": 2356,
      "ians": 2357,
      "Ġìŀ": 2358,
      "face": 2359,
      "éĻ": 2360,
      "Ġinterest": 2361,
      "Cl": 2362,
      "\\end": 2363,
      "Ġtrad": 2364,
      "ĠFl": 2365,
      "ittle": 2366,
      "ĠÐ¿Ð¾": 2367,
      "ender": 2368,
      "lection": 2369,
      "serv": 2370,
      "Ġturn": 2371,
      "',": 2372,
      "inter": 2373,
      "aint": 2374,
      "ĠHowever": 2375,
      "press": 2376,
      ".h": 2377,
      "unt": 2378,
      "EN": 2379,
      "Ġbro": 2380,
      "Ġassoci": 2381,
      "ĠMan": 2382,
      "_t": 2383,
      "ention": 2384,
      "Ð¾Ð¿": 2385,
      "ÑĸÐ´": 2386,
      "Ġdue": 2387,
      "wer": 2388,
      "eta": 2389,
      "her": 2390,
      "ards": 2391,
      "====": 2392,
      "Ġopp": 2393,
      "\\begin": 2394,
      "pecial": 2395,
      "not": 2396,
      "ÑģÐ¸": 2397,
      "ception": 2398,
      "ailable": 2399,
      "aft": 2400,
      "èĩ": 2401,
      "Ġpatients": 2402,
      "ĠIm": 2403,
      "ribut": 2404,
      "duct": 2405,
      "ĠÐł": 2406,
      "Ġsince": 2407,
      "ho": 2408,
      "ĠJohn": 2409,
      "ä¿": 2410,
      "Ġanim": 2411,
      "Ð½Ñĸ": 2412,
      "ths": 2413,
      "Ġenergy": 2414,
      "ysis": 2415,
      "Ġdevelopment": 2416,
      "Ġteach": 2417,
      "Ġlater": 2418,
      "Ġlow": 2419,
      "iones": 2420,
      "apt": 2421,
      "è¨": 2422,
      "span": 2423,
      "32": 2424,
      "Ġperiod": 2425,
      ".\"": 2426,
      "ãĥ»": 2427,
      "Ã½": 2428,
      "rict": 2429,
      "bl": 2430,
      "Ġobject": 2431,
      "34": 2432,
      ".get": 2433,
      "Ġinde": 2434,
      "ival": 2435,
      "ĠØ¨": 2436,
      "Ġmajor": 2437,
      "pon": 2438,
      "ning": 2439,
      "##": 2440,
      "uel": 2441,
      "Ġ</": 2442,
      "Ġlet": 2443,
      "}{": 2444,
      "ä¸į": 2445,
      "ĠNational": 2446,
      "Ġbased": 2447,
      "Ġpub": 2448,
      "Ġtoo": 2449,
      "Un": 2450,
      "bar": 2451,
      "ances": 2452,
      "oint": 2453,
      "Ġbi": 2454,
      ",âĢĿ": 2455,
      "Ġinclude": 2456,
      "aster": 2457,
      "thers": 2458,
      "Ġearly": 2459,
      "ĠÐĿ": 2460,
      "99": 2461,
      "ente": 2462,
      "ĠChrist": 2463,
      "æŃ": 2464,
      "ungen": 2465,
      "Ð°Ð»ÑĮ": 2466,
      "Ġbelie": 2467,
      "åĽ½": 2468,
      "Ġcomb": 2469,
      "ä¸Ĭ": 2470,
      "Ñį": 2471,
      "ĠSu": 2472,
      "urther": 2473,
      "icro": 2474,
      "comm": 2475,
      "âĢ¦": 2476,
      "ige": 2477,
      "ĠâĢĺ": 2478,
      "ä¼ļ": 2479,
      "-c": 2480,
      "38": 2481,
      "ttp": 2482,
      "Ġplan": 2483,
      "ober": 2484,
      "Ġresults": 2485,
      "rel": 2486,
      "Le": 2487,
      "ĠTo": 2488,
      "Ġport": 2489,
      "ãĥ³ãĥ": 2490,
      "Ġsay": 2491,
      "Ġseveral": 2492,
      "Ġmot": 2493,
      "ume": 2494,
      "this": 2495,
      "Ġgiven": 2496,
      "Ġcells": 2497,
      "31": 2498,
      "Ð¾Ð¶": 2499,
      "ĠÑĤÐ°": 2500,
      "La": 2501,
      "ava": 2502,
      "Åĳ": 2503,
      "ĠGu": 2504,
      "erc": 2505,
      "Ġparticular": 2506,
      "ĠStates": 2507,
      "Ġcu": 2508,
      "ades": 2509,
      "Ġou": 2510,
      "Ġdisease": 2511,
      "ãĤ·": 2512,
      "ciÃ³n": 2513,
      "div": 2514,
      "ĠMe": 2515,
      "Ð´Ð°": 2516,
      "Ġsam": 2517,
      "ided": 2518,
      "Ġbetter": 2519,
      "esc": 2520,
      "pression": 2521,
      "Ġpossible": 2522,
      "36": 2523,
      "Ġweek": 2524,
      "ische": 2525,
      "ĠÐĶ": 2526,
      "ãĤ¿": 2527,
      "Ġmean": 2528,
      "idence": 2529,
      "vious": 2530,
      "Ġuntil": 2531,
      "ÐµÐ»ÑĮ": 2532,
      "pre": 2533,
      "ĠReg": 2534,
      "Ġlaw": 2535,
      "ables": 2536,
      "Ġlarg": 2537,
      "ja": 2538,
      "ãģĿ": 2539,
      "Ð´Ð¸": 2540,
      "åŃ¦": 2541,
      "Ġinvest": 2542,
      "ories": 2543,
      "Ġwurde": 2544,
      "ë¡ľ": 2545,
      "cle": 2546,
      "imate": 2547,
      "iÃ³": 2548,
      "aces": 2549,
      "ĠÙģ": 2550,
      "Ġvar": 2551,
      "Ġx": 2552,
      "Ġenvironment": 2553,
      "name": 2554,
      "AN": 2555,
      "Ġsuccess": 2556,
      "yt": 2557,
      "Ġintern": 2558,
      "ether": 2559,
      "ush": 2560,
      "Ġmemb": 2561,
      "Ġdom": 2562,
      "íķľ": 2563,
      "hem": 2564,
      "åĴ": 2565,
      "Ġpap": 2566,
      "ãģĻãĤĭ": 2567,
      "Ġsignificant": 2568,
      "\">Ċ": 2569,
      "ploy": 2570,
      "éĸ": 2571,
      "Ġmanag": 2572,
      "ahr": 2573,
      "Ġestab": 2574,
      "Ġexist": 2575,
      "Ġair": 2576,
      "cont": 2577,
      "iol": 2578,
      "Ġfut": 2579,
      "Ġrefer": 2580,
      "Ġinvol": 2581,
      "ogn": 2582,
      "Ġrecord": 2583,
      "ilar": 2584,
      "Ġavec": 2585,
      "zt": 2586,
      "frac": 2587,
      "Ġkeep": 2588,
      "ĠÙĦ": 2589,
      "ctor": 2590,
      "37": 2591,
      "ification": 2592,
      "ery": 2593,
      "Ġ*/Ċ": 2594,
      "sel": 2595,
      "To": 2596,
      "ë¥": 2597,
      "Ã¢": 2598,
      "arth": 2599,
      "Ġsuper": 2600,
      "ette": 2601,
      "ffic": 2602,
      "Res": 2603,
      "Ġgra": 2604,
      "iques": 2605,
      "ured": 2606,
      "ĠSc": 2607,
      "Ġauch": 2608,
      "ended": 2609,
      "For": 2610,
      "ìĭ": 2611,
      "ills": 2612,
      "Ġrepresent": 2613,
      "å¥": 2614,
      "è¡Į": 2615,
      "Ġbecome": 2616,
      "Name": 2617,
      "bb": 2618,
      "ê³ł": 2619,
      "ĠØ£": 2620,
      "Ġbene": 2621,
      "ware": 2622,
      "ude": 2623,
      "AL": 2624,
      "çĲ": 2625,
      "ãĤĦ": 2626,
      "ĠÐĵ": 2627,
      "Ġhistory": 2628,
      "Ġlik": 2629,
      "Ġhapp": 2630,
      "Ã¤r": 2631,
      "vo": 2632,
      "Ġgovernment": 2633,
      "åĩº": 2634,
      "Ġamong": 2635,
      "vert": 2636,
      "ĠIntern": 2637,
      "Ġcho": 2638,
      "Ġsus": 2639,
      "ected": 2640,
      "ĠAf": 2641,
      "|Ċ": 2642,
      "rug": 2643,
      "ĠWhen": 2644,
      "ÐºÐ¾": 2645,
      "åĪĨ": 2646,
      "è§": 2647,
      "ara": 2648,
      "ilt": 2649,
      "Ġput": 2650,
      "¸°": 2651,
      "bo": 2652,
      "Ġeconom": 2653,
      "åī": 2654,
      "anguage": 2655,
      "Ġtreatment": 2656,
      "ĠÐ½Ðµ": 2657,
      "arl": 2658,
      "Ġview": 2659,
      "Ġavailable": 2660,
      "aire": 2661,
      "Ð²Ð¾": 2662,
      "ãģ©": 2663,
      "aff": 2664,
      "Ġprinci": 2665,
      "48": 2666,
      "iber": 2667,
      "Ġconc": 2668,
      "though": 2669,
      "Ġvir": 2670,
      "æĶ": 2671,
      "uk": 2672,
      "umm": 2673,
      "ĠÑĸ": 2674,
      "Ġprovide": 2675,
      "Ġgeneral": 2676,
      "ÑĨÑĸ": 2677,
      "åĳ": 2678,
      "Id": 2679,
      "Ð¸Ñģ": 2680,
      "etwork": 2681,
      "ST": 2682,
      "ÑĬ": 2683,
      "Ġtre": 2684,
      "Ġblood": 2685,
      "oman": 2686,
      "39": 2687,
      "opt": 2688,
      "Ġsw": 2689,
      "Ġleft": 2690,
      "ems": 2691,
      "ii": 2692,
      "åĴĮ": 2693,
      "æĻ": 2694,
      "Ġcrit": 2695,
      "Ġaccess": 2696,
      "Ġdescrib": 2697,
      "68": 2698,
      "ĠEurope": 2699,
      "Ð¸Ð»": 2700,
      "ĠEd": 2701,
      "ĠÐ¸Ð·": 2702,
      "Ġdeterm": 2703,
      "},": 2704,
      "bol": 2705,
      "Ġha": 2706,
      "cite": 2707,
      "Ġage": 2708,
      "ama": 2709,
      "æĸ¹": 2710,
      "ĠÃ¼": 2711,
      "ained": 2712,
      "Ġfeel": 2713,
      "ocus": 2714,
      "Ø§Øª": 2715,
      "Ġtimes": 2716,
      "ormal": 2717,
      "{Ċ": 2718,
      "Ġproblem": 2719,
      "Ð¼Ð°": 2720,
      "Ġable": 2721,
      "Ġlittle": 2722,
      "æĦ": 2723,
      "ÑĶ": 2724,
      "Ġplant": 2725,
      "ĠWest": 2726,
      "aps": 2727,
      "ito": 2728,
      "ÑģÑĤÐ¸": 2729,
      "Ġseg": 2730,
      "æľ¬": 2731,
      "ãĢĮ": 2732,
      "-S": 2733,
      "ream": 2734,
      "Ġtri": 2735,
      "Ġsitu": 2736,
      "ä»¥": 2737,
      "Ġpress": 2738,
      "NA": 2739,
      "ĠSte": 2740,
      "ably": 2741,
      "Ø¬": 2742,
      "do": 2743,
      "etic": 2744,
      "chen": 2745,
      "ãĥ¬": 2746,
      "ĠÐŀ": 2747,
      "åĵģ": 2748,
      "Ġwhe": 2749,
      "ĠCal": 2750,
      "ãĢį": 2751,
      "ĠNo": 2752,
      "ha": 2753,
      "Ġmeans": 2754,
      "Ġalong": 2755,
      "raf": 2756,
      "Ġparticip": 2757,
      "He": 2758,
      "Īëĭ¤": 2759,
      "Ġarr": 2760,
      "Ġfree": 2761,
      "add": 2762,
      "ĉĉĉ": 2763,
      "ault": 2764,
      "ãģĵãģ¨": 2765,
      "Ġexpect": 2766,
      "ĠQu": 2767,
      "String": 2768,
      "ĠBrit": 2769,
      "):": 2770,
      "ista": 2771,
      "ges": 2772,
      "Ġoch": 2773,
      "ÙĬØ©": 2774,
      "Ġhet": 2775,
      "RE": 2776,
      "Ð½Ð¾Ð³Ð¾": 2777,
      "ests": 2778,
      "Ġnext": 2779,
      "rodu": 2780,
      "ĠWorld": 2781,
      "label": 2782,
      "ç´": 2783,
      "\".": 2784,
      "çĻ": 2785,
      "Ġentre": 2786,
      "ende": 2787,
      "ows": 2788,
      "Ġshort": 2789,
      "ĠØ¹": 2790,
      "ĠYork": 2791,
      "ither": 2792,
      "atory": 2793,
      "Ġdeath": 2794,
      "ãĤģ": 2795,
      "Ġcertain": 2796,
      "ĠIl": 2797,
      "rm": 2798,
      "ires": 2799,
      "ched": 2800,
      "ency": 2801,
      "Ġthings": 2802,
      "Ġtext": 2803,
      "èµ": 2804,
      "ĠÐ¢": 2805,
      "ÐĴ": 2806,
      "Ġevent": 2807,
      "ora": 2808,
      "Type": 2809,
      "Ġspecies": 2810,
      "On": 2811,
      "éĿ": 2812,
      "ache": 2813,
      "æİ": 2814,
      "Ġfilm": 2815,
      "ëı": 2816,
      "Ġdest": 2817,
      "ìļ": 2818,
      "left": 2819,
      "back": 2820,
      "ething": 2821,
      "ĠÑĢÐµ": 2822,
      "åĲĪ": 2823,
      "-M": 2824,
      "Ġâ": 2825,
      "ands": 2826,
      "Ġtit": 2827,
      "ĠÐ¿ÐµÑĢ": 2828,
      "ÑĩÐµ": 2829,
      "ĠØª": 2830,
      "atal": 2831,
      "Ġhard": 2832,
      "igure": 2833,
      "Ġeen": 2834,
      "ĠGod": 2835,
      "44": 2836,
      "Ġcharacter": 2837,
      "Ġinit": 2838,
      "Ġindic": 2839,
      "etting": 2840,
      "æµ": 2841,
      "../": 2842,
      "AC": 2843,
      "ils": 2844,
      "Ġprop": 2845,
      "Ġtrue": 2846,
      "Ġnom": 2847,
      "ĠØ§ÙĦÙħ": 2848,
      "Ġobserv": 2849,
      "Ġtry": 2850,
      "Ġod": 2851,
      "ipp": 2852,
      "ĠMay": 2853,
      "Ġnicht": 2854,
      "lin": 2855,
      "ĠAust": 2856,
      "ì§Ģ": 2857,
      "aken": 2858,
      "Ġcause": 2859,
      "98": 2860,
      "Ġarg": 2861,
      "ä½ľ": 2862,
      "Ġindust": 2863,
      "ĠHer": 2864,
      "Ġsugg": 2865,
      "ete": 2866,
      "rat": 2867,
      "Ġkey": 2868,
      "Ð°Ð»Ð¸": 2869,
      "çŃ": 2870,
      "obal": 2871,
      "éĽ": 2872,
      "Ġcountry": 2873,
      "67": 2874,
      "Ã©es": 2875,
      "Ġdies": 2876,
      "Ġdays": 2877,
      "Ùī": 2878,
      "osp": 2879,
      "ength": 2880,
      "Ġpod": 2881,
      "If": 2882,
      "acy": 2883,
      "Ġcas": 2884,
      "ruction": 2885,
      "Ġìł": 2886,
      "Ġans": 2887,
      "Ġimm": 2888,
      "Ġsoci": 2889,
      "ese": 2890,
      "Ġside": 2891,
      "Ġothers": 2892,
      "äºĨ": 2893,
      "Ġpri": 2894,
      "ĠGerm": 2895,
      "Ġoriginal": 2896,
      "ìľ": 2897,
      "Ġmo": 2898,
      "ãģĪ": 2899,
      "ape": 2900,
      "alf": 2901,
      "ÑĤÐ¾": 2902,
      "atter": 2903,
      "189": 2904,
      "ä¾": 2905,
      "lease": 2906,
      "ĠWar": 2907,
      "action": 2908,
      "Ġteam": 2909,
      "ÐºÐ¾Ð²": 2910,
      "ĠJul": 2911,
      "ä¸º": 2912,
      "Ġfar": 2913,
      "ÐµÑģ": 2914,
      "Ġpercent": 2915,
      "ãģªãģĦ": 2916,
      "Ġsens": 2917,
      "Ġpers": 2918,
      "amente": 2919,
      "Ġ!": 2920,
      "ë¦": 2921,
      "Ð¾Ð»ÑĮ": 2922,
      "Ġcomput": 2923,
      "clus": 2924,
      "Ġtotal": 2925,
      "Ġoffic": 2926,
      "osed": 2927,
      "Ġspecial": 2928,
      "çİ": 2929,
      "Ad": 2930,
      "Ġsize": 2931,
      "Ġnach": 2932,
      "Ġapplic": 2933,
      "ita": 2934,
      "Ġbusiness": 2935,
      "Ġsingle": 2936,
      ".âĢĿĊ": 2937,
      "Ġnatural": 2938,
      "ements": 2939,
      "Ġdam": 2940,
      "ki": 2941,
      "Ġpopulation": 2942,
      "Ġyoung": 2943,
      "ãĤ³": 2944,
      "Ġlog": 2945,
      "alse": 2946,
      "ìķ": 2947,
      "ken": 2948,
      "Ġcreat": 2949,
      "ê°Ģ": 2950,
      "Ġask": 2951,
      "ãģ£ãģŁ": 2952,
      "Ġgrou": 2953,
      "return": 2954,
      "Ġsimilar": 2955,
      "ga": 2956,
      "aring": 2957,
      "Ġve": 2958,
      "Ġred": 2959,
      "ena": 2960,
      "my": 2961,
      "bum": 2962,
      "ĠmÃ¡s": 2963,
      "essage": 2964,
      "wards": 2965,
      "Ġnever": 2966,
      "ungs": 2967,
      "Ġalways": 2968,
      "Ġpred": 2969,
      "ÑĪÐ¸": 2970,
      "ĠÐ¿ÑĢÐµ": 2971,
      "Ġnov": 2972,
      "Ġhistor": 2973,
      "Ġsite": 2974,
      "Ġlevels": 2975,
      "raft": 2976,
      "ising": 2977,
      "Ġdella": 2978,
      "Ġrespons": 2979,
      "Ġlearning": 2980,
      "IC": 2981,
      "Ġdoc": 2982,
      "ban": 2983,
      "Ġpotential": 2984,
      "ites": 2985,
      "off": 2986,
      "ĠÃ¤": 2987,
      "ÑĥÑĢ": 2988,
      "Ã¶n": 2989,
      "Ġsal": 2990,
      "ĠBar": 2991,
      "What": 2992,
      "Ġspace": 2993,
      "ored": 2994,
      "åİ": 2995,
      "Ġcreate": 2996,
      "Ġsays": 2997,
      "ãģĭãĤī": 2998,
      "arget": 2999,
      "ered": 3000,
      "gy": 3001,
      "Ġsomething": 3002,
      "ĠII": 3003,
      "ental": 3004,
      "Ġbar": 3005,
      "Ġmass": 3006,
      "Ġareas": 3007,
      "Ġpath": 3008,
      "ÐµÐ·": 3009,
      "ĠÃ¼ber": 3010,
      "fo": 3011,
      "Ã¤t": 3012,
      "new": 3013,
      "Ġcomplet": 3014,
      "ony": 3015,
      "Ã©m": 3016,
      "èĥ½": 3017,
      "Ġbei": 3018,
      "85": 3019,
      "ãģ¤": 3020,
      "Ġfull": 3021,
      "nÃŃ": 3022,
      "è¦ģ": 3023,
      "Ġmaking": 3024,
      "æĮ": 3025,
      "ĠJan": 3026,
      "Ġhom": 3027,
      "Ġgoing": 3028,
      "IT": 3029,
      "é«": 3030,
      "Ġabs": 3031,
      "cz": 3032,
      "bf": 3033,
      "Ġrespect": 3034,
      "ĠAnt": 3035,
      "Ġabove": 3036,
      "Ð½Ð¾Ð¹": 3037,
      "ĠNov": 3038,
      "Ġey": 3039,
      "Ġwr": 3040,
      "Ã©d": 3041,
      "tre": 3042,
      "aim": 3043,
      "Ġaf": 3044,
      "El": 3045,
      "istic": 3046,
      "ney": 3047,
      "Ġfund": 3048,
      "ÑĤÑĮ": 3049,
      "è´": 3050,
      "ãĥķ": 3051,
      "Ġprotect": 3052,
      "ãĤ«": 3053,
      "ìĬ": 3054,
      "77": 3055,
      "ĠÐ±Ñĭ": 3056,
      "Ġscient": 3057,
      "Ġsie": 3058,
      "Ġfocus": 3059,
      "atures": 3060,
      "Ġ%": 3061,
      "ĠPer": 3062,
      "Ġprob": 3063,
      "lete": 3064,
      "Ġcou": 3065,
      "Ġsent": 3066,
      "Ġtog": 3067,
      "ators": 3068,
      "Ġcamp": 3069,
      "nen": 3070,
      "Ġbecame": 3071,
      "ortun": 3072,
      "ÑĢÐ¾Ð²": 3073,
      "Ġauthor": 3074,
      "uck": 3075,
      "Ð°Ðº": 3076,
      "ption": 3077,
      "ĠMon": 3078,
      "thing": 3079,
      "Ġelse": 3080,
      "Ġcourse": 3081,
      "ĠDr": 3082,
      "æŀ": 3083,
      "Ġhigher": 3084,
      "Ġdiv": 3085,
      "itz": 3086,
      "Ġcancer": 3087,
      "66": 3088,
      "Ġhat": 3089,
      "aul": 3090,
      "ìĿĢ": 3091,
      "åł": 3092,
      "var": 3093,
      "Ġur": 3094,
      "ira": 3095,
      "ald": 3096,
      "iam": 3097,
      "Ġaway": 3098,
      "log": 3099,
      "ÃŃt": 3100,
      "Ġill": 3101,
      "tml": 3102,
      "ĠĠĊ": 3103,
      "Ġdepend": 3104,
      "Ġanalysis": 3105,
      "æľĪ": 3106,
      "Val": 3107,
      "Ġstudies": 3108,
      "ä¸ļ": 3109,
      "Ġtemper": 3110,
      "ĠSie": 3111,
      "LE": 3112,
      "Ð°Ñģ": 3113,
      "idd": 3114,
      "Ġimpact": 3115,
      "ĠMin": 3116,
      "Ġprevent": 3117,
      "Ġgive": 3118,
      "ÐµÑĢÐ°": 3119,
      "List": 3120,
      "Ġhouse": 3121,
      "Ġespecial": 3122,
      "**Ċ": 3123,
      ".s": 3124,
      "ario": 3125,
      "Ġnear": 3126,
      "é¡": 3127,
      "mente": 3128,
      "oney": 3129,
      "Ã²": 3130,
      "ĠStud": 3131,
      "Ġneg": 3132,
      "ĠAug": 3133,
      "class": 3134,
      "Ġstrong": 3135,
      "Ġens": 3136,
      "Ġphot": 3137,
      "Ġsein": 3138,
      "mod": 3139,
      "ãĥĹ": 3140,
      "ournal": 3141,
      "Col": 3142,
      "Ġcover": 3143,
      "ĠÐĽ": 3144,
      "é«ĺ": 3145,
      "ku": 3146,
      "Ġacross": 3147,
      "eld": 3148,
      "Ġpast": 3149,
      "Ġdiffic": 3150,
      "Ġconditions": 3151,
      "Ġleast": 3152,
      "05": 3153,
      "èª": 3154,
      "ension": 3155,
      "ona": 3156,
      "Ġtogether": 3157,
      "Ð°Ð¼": 3158,
      "ius": 3159,
      "èĩª": 3160,
      "side": 3161,
      "def": 3162,
      "Ġbehav": 3163,
      "ving": 3164,
      "ande": 3165,
      "order": 3166,
      "-B": 3167,
      "Ġpur": 3168,
      "iers": 3169,
      "Ġrole": 3170,
      "ãĤ°": 3171,
      "ê²": 3172,
      "Ġprivate": 3173,
      "Ġrequire": 3174,
      "Ġten": 3175,
      "ĠÐ¶": 3176,
      "ãĤ¸": 3177,
      "></": 3178,
      "Ġspecific": 3179,
      "Ġcommunity": 3180,
      "ĠSouth": 3181,
      "ening": 3182,
      "Ġperm": 3183,
      "Ġamount": 3184,
      "hib": 3185,
      "icy": 3186,
      "oud": 3187,
      "quation": 3188,
      "play": 3189,
      "Ġdeb": 3190,
      "ĠÃ©t": 3191,
      "uff": 3192,
      "|-": 3193,
      "æĪĲ": 3194,
      "äºĭ": 3195,
      "IS": 3196,
      "asing": 3197,
      "188": 3198,
      "ump": 3199,
      "Ġinte": 3200,
      "æ¯": 3201,
      "ledge": 3202,
      "ises": 3203,
      "Ġdiscuss": 3204,
      "Ø·": 3205,
      "><": 3206,
      "thern": 3207,
      "Ġnational": 3208,
      "idth": 3209,
      "ibr": 3210,
      "Ġcirc": 3211,
      "ëĵ": 3212,
      "Ġservice": 3213,
      "Ġheart": 3214,
      "Ø§ÙĨ": 3215,
      "Ġrelations": 3216,
      "ĠCont": 3217,
      "çľ": 3218,
      "arr": 3219,
      "Ø§Ø±": 3220,
      "pha": 3221,
      "adem": 3222,
      "çĲĨ": 3223,
      "ĠCor": 3224,
      "Ã´": 3225,
      "Ġvarious": 3226,
      "Ð³Ð¾": 3227,
      "param": 3228,
      "Ġlower": 3229,
      "minist": 3230,
      "ĠOne": 3231,
      "ĠBer": 3232,
      "Ġma": 3233,
      "ĠGl": 3234,
      "Ġdat": 3235,
      "oz": 3236,
      "aux": 3237,
      "ĠPart": 3238,
      "ternal": 3239,
      "now": 3240,
      "ĠWill": 3241,
      "lem": 3242,
      "ĠAfric": 3243,
      "47": 3244,
      "Ġkind": 3245,
      "ĠWhat": 3246,
      ".g": 3247,
      "Ġcoll": 3248,
      "berg": 3249,
      "Ġep": 3250,
      "88": 3251,
      "Ġinflu": 3252,
      "ç¤": 3253,
      "Ġoffer": 3254,
      "49": 3255,
      "ription": 3256,
      "Ġexperience": 3257,
      "Ġfurther": 3258,
      "ìĦľ": 3259,
      "Ġincrease": 3260,
      "isc": 3261,
      "ĠEst": 3262,
      "omet": 3263,
      "Ã³w": 3264,
      "sych": 3265,
      "åľ°": 3266,
      "ãĥŃ": 3267,
      "Ġsystems": 3268,
      "Ġê°": 3269,
      "Ġcity": 3270,
      "ãģĽ": 3271,
      "åĭ": 3272,
      "Ġste": 3273,
      "Ġproblems": 3274,
      "There": 3275,
      "Ġhowever": 3276,
      "ë¥¼": 3277,
      "cht": 3278,
      "ØĮ": 3279,
      "quest": 3280,
      "ih": 3281,
      "Ġfem": 3282,
      "Ðļ": 3283,
      "Ġhaving": 3284,
      "asc": 3285,
      "].": 3286,
      "abil": 3287,
      "Ġfoot": 3288,
      "ready": 3289,
      "ĠEm": 3290,
      "pa": 3291,
      "ĠÃ¨": 3292,
      "hel": 3293,
      "Ġrange": 3294,
      "ĠÑı": 3295,
      "iat": 3296,
      "amed": 3297,
      "unic": 3298,
      "lected": 3299,
      "Ġstep": 3300,
      "69": 3301,
      "ÐºÑĥ": 3302,
      "Ġnecess": 3303,
      "most": 3304,
      "Ġmind": 3305,
      "Ġchanges": 3306,
      "augh": 3307,
      "aves": 3308,
      "lege": 3309,
      "Ġsem": 3310,
      "ÑĩÐ¸": 3311,
      "endo": 3312,
      "ops": 3313,
      "Ġmom": 3314,
      "opy": 3315,
      "å®ļ": 3316,
      "186": 3317,
      "æĽ": 3318,
      "åŁ": 3319,
      "ĠArt": 3320,
      "Ġworking": 3321,
      ",\\": 3322,
      "chie": 3323,
      "Ġsat": 3324,
      "gress": 3325,
      "ÑĺÐµ": 3326,
      "Ġfri": 3327,
      "ideo": 3328,
      "Ġsou": 3329,
      "æ±": 3330,
      "ias": 3331,
      "ĠJe": 3332,
      "ĠPe": 3333,
      "ras": 3334,
      "æĸ°": 3335,
      "Ġutil": 3336,
      "osis": 3337,
      "Ġdifficult": 3338,
      "Te": 3339,
      "Ġcases": 3340,
      "Äĩ": 3341,
      "ivity": 3342,
      "acc": 3343,
      "{equation": 3344,
      "ensive": 3345,
      "Ġmillion": 3346,
      "Ġwind": 3347,
      "Ġlikely": 3348,
      "Ġsz": 3349,
      "æ²": 3350,
      "ae": 3351,
      "Ġsont": 3352,
      "ened": 3353,
      "Cont": 3354,
      "æ¥": 3355,
      "ĠMus": 3356,
      "ols": 3357,
      "ĠNorth": 3358,
      "ĠBy": 3359,
      "ĠÐ¿ÑĢÐ¾": 3360,
      "ĠCo": 3361,
      "Ġaccount": 3362,
      "aÅĤ": 3363,
      "))": 3364,
      "Ġfuture": 3365,
      "Ġeffects": 3366,
      "ĠSan": 3367,
      "Ġlanguage": 3368,
      "Ã§Ã£o": 3369,
      "$,": 3370,
      "Ġwerden": 3371,
      "Ġdou": 3372,
      "ĠCount": 3373,
      "Ġenough": 3374,
      "-p": 3375,
      "ĠWith": 3376,
      "55": 3377,
      "ãģĦãĤĭ": 3378,
      "åħ¥": 3379,
      "ãĤµ": 3380,
      "'un": 3381,
      "uis": 3382,
      "æ¸": 3383,
      "ini": 3384,
      "Ġeducation": 3385,
      "Ġarch": 3386,
      "Ã©g": 3387,
      "umb": 3388,
      "iff": 3389,
      "Ġdig": 3390,
      "Ġgroups": 3391,
      "Ġproduction": 3392,
      ".p": 3393,
      "Ġprot": 3394,
      "Ġreally": 3395,
      "æ´": 3396,
      "cem": 3397,
      "ĠÂ»": 3398,
      "\\Ċ": 3399,
      "Ġbis": 3400,
      "Ġfail": 3401,
      "ader": 3402,
      "umn": 3403,
      "ĠÐ³Ð¾Ð´Ð°": 3404,
      "uest": 3405,
      "iction": 3406,
      "apan": 3407,
      "Ġprem": 3408,
      "Ġsubject": 3409,
      "ips": 3410,
      "ibility": 3411,
      "rown": 3412,
      "Ġbig": 3413,
      "References": 3414,
      "Ġcy": 3415,
      "å·¥": 3416,
      "Ðł": 3417,
      "Im": 3418,
      "åı¯": 3419,
      "Ġwhy": 3420,
      "è¾": 3421,
      "-A": 3422,
      "ÐµÐ½Ð¸Ñı": 3423,
      "eds": 3424,
      "ribution": 3425,
      "çµ": 3426,
      "Øµ": 3427,
      "Ġbenef": 3428,
      "Not": 3429,
      "uild": 3430,
      "Ġtw": 3431,
      "iles": 3432,
      "chan": 3433,
      "Ġcentury": 3434,
      "mathcal": 3435,
      "Ġfran": 3436,
      "oi": 3437,
      "ãģ¡": 3438,
      "ĠÙģÙĬ": 3439,
      "187": 3440,
      "anz": 3441,
      "ĮĢ": 3442,
      "roid": 3443,
      "'est": 3444,
      "Ġìķ": 3445,
      "Ġid": 3446,
      "Ġcontain": 3447,
      "pril": 3448,
      "irm": 3449,
      "ĠÐ£": 3450,
      "Ġquestion": 3451,
      "Ġwords": 3452,
      "Ġconn": 3453,
      "code": 3454,
      "Ġsource": 3455,
      "ĠDes": 3456,
      "Ð¾ÑĢÐ¸": 3457,
      "Ġmach": 3458,
      "Ġfun": 3459,
      "ief": 3460,
      "utes": 3461,
      "Ġvoid": 3462,
      "ador": 3463,
      "Ġhold": 3464,
      "ji": 3465,
      "Ġmembers": 3466,
      "uz": 3467,
      "Ġ==": 3468,
      "ĠSchool": 3469,
      "eme": 3470,
      "uit": 3471,
      "Ġassociated": 3472,
      "ĠHist": 3473,
      "Ġprevious": 3474,
      "Ġusually": 3475,
      "Ġ--": 3476,
      "éĥ": 3477,
      "ĠEnglish": 3478,
      "ÐĲ": 3479,
      "Ġfall": 3480,
      "Ġaddition": 3481,
      "ĠZe": 3482,
      "Ġwhether": 3483,
      "omb": 3484,
      "Ġpain": 3485,
      "Ġsind": 3486,
      "Ġneeds": 3487,
      "ilm": 3488,
      "CT": 3489,
      "Ġë°": 3490,
      "Ġoccur": 3491,
      "Ġdeg": 3492,
      "å¤ļ": 3493,
      "-P": 3494,
      "Ġnull": 3495,
      "Ġdos": 3496,
      "Ġnetwork": 3497,
      "Ġcheck": 3498,
      "sequ": 3499,
      "Ġalready": 3500,
      "Ġrate": 3501,
      "Ġseen": 3502,
      "ograf": 3503,
      "ç¨": 3504,
      "ima": 3505,
      "Ġdone": 3506,
      "Ġtoday": 3507,
      "Ġfive": 3508,
      "Ġcame": 3509,
      "ground": 3510,
      "Ġamb": 3511,
      "ĠÐ²Ð¸": 3512,
      "æĥ": 3513,
      "Ð½ÑĭÑħ": 3514,
      "Ġexc": 3515,
      "bon": 3516,
      "ĠVal": 3517,
      "Ġemploy": 3518,
      "ç«": 3519,
      "Ġeither": 3520,
      "ptember": 3521,
      "How": 3522,
      "Ġintrodu": 3523,
      "Ġpay": 3524,
      "Ġprofession": 3525,
      "ria": 3526,
      "ivil": 3527,
      "Ġsure": 3528,
      "Ð½Ñĥ": 3529,
      "Ġ.Ċ": 3530,
      ");": 3531,
      "ãģ¿": 3532,
      "ustom": 3533,
      "Ð½ÑĭÐ¹": 3534,
      "æĢ§": 3535,
      "empt": 3536,
      "vis": 3537,
      "ê¸°": 3538,
      "ÑĩÐ°": 3539,
      "Ġ>": 3540,
      "ĠÑį": 3541,
      "ÑģÐ¿": 3542,
      "Ġtook": 3543,
      "Ġlot": 3544,
      "èĢħ": 3545,
      "Ã¡l": 3546,
      "Ġsimple": 3547,
      "ights": 3548,
      "Ġren": 3549,
      "pi": 3550,
      "aced": 3551,
      "ĠAugust": 3552,
      "Ġblack": 3553,
      "elling": 3554,
      "ÑĥÐ´": 3555,
      "ãĤı": 3556,
      "å®¶": 3557,
      "ĠAg": 3558,
      "...Ċ": 3559,
      "geb": 3560,
      "Ġchem": 3561,
      "Ġtypes": 3562,
      ".C": 3563,
      "Ð°Ð´": 3564,
      "Ġpaper": 3565,
      "ÈĻ": 3566,
      "Ġmi": 3567,
      "ĠDep": 3568,
      "uy": 3569,
      "Ġ`": 3570,
      "Ġmusic": 3571,
      "Ġposition": 3572,
      "ending": 3573,
      "âĢī": 3574,
      "Ġmilit": 3575,
      "Ġbase": 3576,
      "onse": 3577,
      "Ġground": 3578,
      "Ã©c": 3579,
      "Ġonce": 3580,
      "Ġdetail": 3581,
      "You": 3582,
      "aur": 3583,
      "ĠThat": 3584,
      "-in": 3585,
      "Or": 3586,
      "Ġseries": 3587,
      "æĿ¥": 3588,
      "ED": 3589,
      "mon": 3590,
      "Ġreason": 3591,
      "sub": 3592,
      "anc": 3593,
      "ĠHealth": 3594,
      "})": 3595,
      "Ã¡t": 3596,
      "}(": 3597,
      "Ġactivity": 3598,
      "Ġcolor": 3599,
      "ĠIS": 3600,
      "ĠHis": 3601,
      "cret": 3602,
      "-w": 3603,
      "ram": 3604,
      "ules": 3605,
      "Ġconcern": 3606,
      "è²": 3607,
      "Ġtechnology": 3608,
      "Ġzum": 3609,
      "iert": 3610,
      "ĠDo": 3611,
      "Ġpa": 3612,
      "çĦ": 3613,
      "ager": 3614,
      "Ġliter": 3615,
      "Ġworks": 3616,
      "lim": 3617,
      ".org": 3618,
      "ĠAct": 3619,
      "Ġcomplex": 3620,
      "Ġmais": 3621,
      "ëĤ": 3622,
      "ĠÙħÙĨ": 3623,
      ".e": 3624,
      "-h": 3625,
      "ÐµÐ½ÑĤ": 3626,
      "place": 3627,
      "Ġcompany": 3628,
      "Ġlay": 3629,
      "Ġmarket": 3630,
      "utsch": 3631,
      "Ġloss": 3632,
      "Ġfrequ": 3633,
      "Ġservices": 3634,
      "Ð½Ðµ": 3635,
      "ä½ĵ": 3636,
      "Ġconsum": 3637,
      "iva": 3638,
      "Ġcontent": 3639,
      "Ġoder": 3640,
      "selves": 3641,
      "Ġrelig": 3642,
      "Ġmal": 3643,
      "hal": 3644,
      "ET": 3645,
      "rid": 3646,
      "illed": 3647,
      "iation": 3648,
      "rim": 3649,
      "Ã¤nd": 3650,
      "Ġsuggest": 3651,
      "Ġdrug": 3652,
      "Ġeiner": 3653,
      "Ġespecially": 3654,
      "ĠÃ©s": 3655,
      "ba": 3656,
      "AP": 3657,
      "Ġmeet": 3658,
      "ìĸ": 3659,
      "Ġstory": 3660,
      "ĠAfter": 3661,
      "ĠAustral": 3662,
      ".m": 3663,
      "Ġbrain": 3664,
      "amin": 3665,
      "Ġmicro": 3666,
      "pond": 3667,
      "Ġcut": 3668,
      "97": 3669,
      "ee": 3670,
      "Ġregion": 3671,
      "td": 3672,
      "Ġbelow": 3673,
      "Ġonline": 3674,
      "ĠState": 3675,
      "ÑģÐºÐ¾Ð³Ð¾": 3676,
      "Ġcountries": 3677,
      "èĤ": 3678,
      "iten": 3679,
      "iting": 3680,
      "uth": 3681,
      "Ġquality": 3682,
      "oper": 3683,
      "www": 3684,
      "çº": 3685,
      "Ġvor": 3686,
      "Ġzur": 3687,
      "ttps": 3688,
      "OS": 3689,
      "æı": 3690,
      "Ġconsidered": 3691,
      "åħ¨": 3692,
      "Īĺ": 3693,
      "46": 3694,
      "ervice": 3695,
      "ounds": 3696,
      "Ġmem": 3697,
      "Ġmag": 3698,
      "fect": 3699,
      "Ġmakes": 3700,
      "Ġreview": 3701,
      "æĭ": 3702,
      "Ġbuilding": 3703,
      "Ġtro": 3704,
      "ĠLand": 3705,
      "het": 3706,
      "Ġê²": 3707,
      "Ġsepar": 3708,
      "iger": 3709,
      "ection": 3710,
      "ÐĿ": 3711,
      "ëıĦ": 3712,
      "~\\": 3713,
      "Ġthought": 3714,
      "Ġresponse": 3715,
      "åıĳ": 3716,
      "ĠÐ´Ð¾": 3717,
      "å¸Ĥ": 3718,
      "utions": 3719,
      "ÑģÐºÐ¾Ð¹": 3720,
      "Ġshown": 3721,
      "Ġva": 3722,
      "Ġsoft": 3723,
      "Ġrequired": 3724,
      "Ġbir": 3725,
      "ela": 3726,
      "Ġrep": 3727,
      "Ġmodern": 3728,
      "load": 3729,
      "Ġaver": 3730,
      "ati": 3731,
      "xim": 3732,
      "Ð½ÑĭÐµ": 3733,
      "iar": 3734,
      "ÑĢÐ¾": 3735,
      "iding": 3736,
      "Ġlive": 3737,
      "unk": 3738,
      "ivo": 3739,
      "itch": 3740,
      "jo": 3741,
      "Ġseason": 3742,
      "ĠBo": 3743,
      "icles": 3744,
      "ĠAng": 3745,
      "Ġmedic": 3746,
      "rad": 3747,
      "ula": 3748,
      "Ġsix": 3749,
      "Ġaux": 3750,
      "Ġsex": 3751,
      "}^": 3752,
      "ãĤ£": 3753,
      "ĠAc": 3754,
      "Ġsurface": 3755,
      "ĠìĿ´": 3756,
      "AM": 3757,
      "Ð·Ð¸": 3758,
      "ĠSome": 3759,
      "ë§": 3760,
      "Ġaccording": 3761,
      "èī": 3762,
      "ãģĦãģ¾ãģĻ": 3763,
      "ĠInstit": 3764,
      "ĠÑħ": 3765,
      "é£": 3766,
      "Ġchall": 3767,
      "ĠGener": 3768,
      "ĠSer": 3769,
      "Ġsett": 3770,
      "Ġaction": 3771,
      "Ð»Ðµ": 3772,
      "ĠRep": 3773,
      "ë¦¬": 3774,
      "åĮĸ": 3775,
      "Ġarticle": 3776,
      "Ġachie": 3777,
      "êµ": 3778,
      "Ġsympt": 3779,
      "Ġtaken": 3780,
      "Ġbreak": 3781,
      "}_": 3782,
      "ÑĤÑĥ": 3783,
      "ebru": 3784,
      "Ġrather": 3785,
      "ÅĦ": 3786,
      "-C": 3787,
      "hold": 3788,
      "Ġwhite": 3789,
      "500": 3790,
      "Ġ;": 3791,
      "Ġnature": 3792,
      "_s": 3793,
      "Ġbes": 3794,
      "omm": 3795,
      "Ġpersonal": 3796,
      "ÙĬÙĨ": 3797,
      "Ġera": 3798,
      "Ġir": 3799,
      "ĠMc": 3800,
      "Ġbegan": 3801,
      "gn": 3802,
      "ĠPres": 3803,
      "iste": 3804,
      "atur": 3805,
      "ĠDav": 3806,
      "Ġcompet": 3807,
      "Ġface": 3808,
      "Ob": 3809,
      "Ġhalf": 3810,
      "'A": 3811,
      "ogen": 3812,
      "where": 3813,
      "oma": 3814,
      "inning": 3815,
      "enz": 3816,
      "opp": 3817,
      "avor": 3818,
      "Ġgrowth": 3819,
      "Ġdecl": 3820,
      "Ġcreated": 3821,
      "ĠBritish": 3822,
      ".d": 3823,
      "ÈĽ": 3824,
      "Ġphysical": 3825,
      "Ġvot": 3826,
      "rect": 3827,
      "ties": 3828,
      "ĠAss": 3829,
      "Ġknowledge": 3830,
      "Ġaddress": 3831,
      "pan": 3832,
      "plement": 3833,
      "alu": 3834,
      "ĠCO": 3835,
      "éĹ": 3836,
      "ports": 3837,
      "Ġrecogn": 3838,
      "ĠKing": 3839,
      "medi": 3840,
      "Ġpublished": 3841,
      "âĢĻre": 3842,
      "42": 3843,
      "ham": 3844,
      "posed": 3845,
      "Ã©l": 3846,
      "Ġattack": 3847,
      "Ġfile": 3848,
      "ua": 3849,
      "Ġ)": 3850,
      "Ġih": 3851,
      "),Ċ": 3852,
      "ä¸ĭ": 3853,
      "Ġapproach": 3854,
      "Par": 3855,
      "Ġqual": 3856,
      "æĸĻ": 3857,
      "elta": 3858,
      "íķ´": 3859,
      "ĠSm": 3860,
      "ĠHar": 3861,
      "alpha": 3862,
      "Ġincreased": 3863,
      "Ġprincip": 3864,
      "bor": 3865,
      "ĠAmerica": 3866,
      "Ð¾Ð²Ð¸": 3867,
      "Ġmoment": 3868,
      "_d": 3869,
      "odes": 3870,
      "ander": 3871,
      "Ġmor": 3872,
      "ãĥĨ": 3873,
      "inc": 3874,
      "AD": 3875,
      "ference": 3876,
      "Ð»Ð¾": 3877,
      "Ġways": 3878,
      "Ġupon": 3879,
      "Ġnormal": 3880,
      "Er": 3881,
      "bers": 3882,
      "Ġnut": 3883,
      "çķ": 3884,
      "éĺ": 3885,
      "Ġobtain": 3886,
      "sten": 3887,
      "ĠJapan": 3888,
      "åħ¬": 3889,
      "Ġgame": 3890,
      "ĠÐ¤": 3891,
      "isation": 3892,
      "Ġwhole": 3893,
      "uments": 3894,
      "Ġvalues": 3895,
      "Ġdeveloped": 3896,
      "Ġmeasure": 3897,
      "ĠÐĺ": 3898,
      "ĠPre": 3899,
      "åĢ": 3900,
      "enden": 3901,
      "Ġdefin": 3902,
      "iej": 3903,
      "gar": 3904,
      "ny": 3905,
      "ocal": 3906,
      "lands": 3907,
      "Ġblock": 3908,
      "Ð°Ð»Ð°": 3909,
      "ĠMy": 3910,
      "But": 3911,
      "RO": 3912,
      "Ġalg": 3913,
      "Ġflow": 3914,
      "ography": 3915,
      "ÑĥÐ±": 3916,
      "Ġrelated": 3917,
      "Ġstructure": 3918,
      "185": 3919,
      "ĠÐ¿Ð¾Ð»": 3920,
      "Ġproducts": 3921,
      "ĠSystem": 3922,
      "align": 3923,
      "CO": 3924,
      "Ġjob": 3925,
      "Ġshows": 3926,
      "Ġpopular": 3927,
      "const": 3928,
      "ede": 3929,
      "rab": 3930,
      "Ġtalk": 3931,
      "ÑģÑĤÐ²": 3932,
      "å£": 3933,
      "Ġvous": 3934,
      "ĠLes": 3935,
      "itation": 3936,
      "Ġ=>": 3937,
      "urt": 3938,
      "åŃĲ": 3939,
      "Ġdurch": 3940,
      "ls": 3941,
      "ague": 3942,
      "Ġdiscover": 3943,
      "Ġcommunic": 3944,
      "leep": 3945,
      "auf": 3946,
      ".c": 3947,
      "ĠLond": 3948,
      "Ġterms": 3949,
      "inary": 3950,
      "Ġrelationship": 3951,
      "When": 3952,
      "ÑģÐºÐ¸Ð¹": 3953,
      "Ġflu": 3954,
      "éķ": 3955,
      "Ind": 3956,
      "éĥ¨": 3957,
      "ãĤŃ": 3958,
      "formation": 3959,
      "Data": 3960,
      "Ġled": 3961,
      "ĠÙĬ": 3962,
      "zi": 3963,
      "Ġang": 3964,
      "comes": 3965,
      "met": 3966,
      "Ġreported": 3967,
      "ĠÐ²Ñĭ": 3968,
      "kl": 3969,
      "ĠApril": 3970,
      "Ø´": 3971,
      "itar": 3972,
      "ala": 3973,
      "Ġtou": 3974,
      "Ġplants": 3975,
      "itted": 3976,
      "Ġstates": 3977,
      "Ġdocument": 3978,
      "ãĥĥãĥĪ": 3979,
      "ĠFrance": 3980,
      "Ġrecomm": 3981,
      "And": 3982,
      "Ġclear": 3983,
      "ogle": 3984,
      "By": 3985,
      "æ³ķ": 3986,
      "string": 3987,
      "uary": 3988,
      "ç®": 3989,
      "åķ": 3990,
      "Ġvia": 3991,
      "Ġmonths": 3992,
      "Ġdep": 3993,
      "()Ċ": 3994,
      "ĠFre": 3995,
      "cil": 3996,
      "Ã¼ck": 3997,
      "ĠDer": 3998,
      "Ġcompon": 3999,
      ".html": 4000,
      "çī©": 4001,
      "Ġemb": 4002,
      "chaft": 4003,
      "åĬĽ": 4004,
      "çŁ": 4005,
      "Ġengine": 4006,
      "ä¸ª": 4007,
      "Ġfa": 4008,
      "ĠRuss": 4009,
      "Ġconduct": 4010,
      "Ġviol": 4011,
      "duc": 4012,
      "ĠPark": 4013,
      "iddle": 4014,
      "Ġeffort": 4015,
      "key": 4016,
      "Ġstrateg": 4017,
      "////": 4018,
      "Ġpoints": 4019,
      "olution": 4020,
      "Ph": 4021,
      "adas": 4022,
      "ĠNot": 4023,
      "lying": 4024,
      "ĠSeptember": 4025,
      "ults": 4026,
      "08": 4027,
      "é¢": 4028,
      "ãģ¾ãģĹãģŁ": 4029,
      "Ġaffect": 4030,
      "../../": 4031,
      "Ġpan": 4032,
      "ĠÃ¤r": 4033,
      "oria": 4034,
      "41": 4035,
      "war": 4036,
      "ÑĢÐ°Ð²": 4037,
      "ummer": 4038,
      "ĠEin": 4039,
      "01": 4040,
      "iem": 4041,
      "åĨħ": 4042,
      "Ġhref": 4043,
      "Ġglobal": 4044,
      "Ġinvestig": 4045,
      "Ġalmost": 4046,
      "Ġë§": 4047,
      "Ġgot": 4048,
      "ford": 4049,
      "head": 4050,
      "Ġeffic": 4051,
      "åīį": 4052,
      "Ġstandard": 4053,
      "pec": 4054,
      "ÐµÑĢÐ¸": 4055,
      "Ġincluded": 4056,
      "Ġtarget": 4057,
      "));Ċ": 4058,
      "Ġquant": 4059,
      "ÑģÑĤÑĮ": 4060,
      "Ġwird": 4061,
      "ged": 4062,
      "ï¼ī": 4063,
      "Ġlinks": 4064,
      "Ġwie": 4065,
      "Ġcontact": 4066,
      "mes": 4067,
      "Ġtell": 4068,
      "US": 4069,
      "ÑģÐºÐ°": 4070,
      "imum": 4071,
      "ï¼Ī": 4072,
      "amma": 4073,
      "Ġscience": 4074,
      "Ġcondition": 4075,
      "lag": 4076,
      "apy": 4077,
      "Ã¼n": 4078,
      "Ġpie": 4079,
      "éĢļ": 4080,
      "ĠMal": 4081,
      "ãĥ¡": 4082,
      "Ġcannot": 4083,
      "ĠGre": 4084,
      "umber": 4085,
      "anced": 4086,
      "Ġidea": 4087,
      "Ġevidence": 4088,
      "eters": 4089,
      "Ġentire": 4090,
      "Ġintegr": 4091,
      "ãĤ·ãĥ": 4092,
      "lig": 4093,
      "anger": 4094,
      "æĻĤ": 4095,
      "Ġassess": 4096,
      "Ġsil": 4097,
      "ĠPhil": 4098,
      "Ġstyle": 4099,
      "ĠCity": 4100,
      "Ġneeded": 4101,
      "Ġnel": 4102,
      "ĠItal": 4103,
      "Ġquick": 4104,
      "ola": 4105,
      "ĠOct": 4106,
      "Pl": 4107,
      "æľĢ": 4108,
      "ington": 4109,
      "Ġtraining": 4110,
      "ãģ¨ãģĦ": 4111,
      "43": 4112,
      "cher": 4113,
      "ahl": 4114,
      "Ġregard": 4115,
      "Ġprovided": 4116,
      "field": 4117,
      "ÑĢÐ°Ð½": 4118,
      "ÑĸÐ¹": 4119,
      "Ġversion": 4120,
      "Ð°Ð¹": 4121,
      "Ġweight": 4122,
      "Ġliving": 4123,
      "astic": 4124,
      "istance": 4125,
      "ãģ®ãģ§": 4126,
      "ãĥŀ": 4127,
      "Ġmedical": 4128,
      "Ð¿Ð¸": 4129,
      "Ġconcept": 4130,
      "Ġmax": 4131,
      "ĠInter": 4132,
      "mu": 4133,
      "link": 4134,
      "Ġmoney": 4135,
      "Ġactivities": 4136,
      "ques": 4137,
      "Ġquestions": 4138,
      "ords": 4139,
      "åº¦": 4140,
      "istics": 4141,
      "rap": 4142,
      "'re": 4143,
      "æĹ¶": 4144,
      "Ġimage": 4145,
      "iÃ¨re": 4146,
      "Ð¾Ð¼Ñĥ": 4147,
      "ĠResearch": 4148,
      "Ġappear": 4149,
      "izing": 4150,
      "rust": 4151,
      "-based": 4152,
      "Ġom": 4153,
      "Ġìĭ": 4154,
      "Ġorg": 4155,
      "ĠGo": 4156,
      "ĠÃ®": 4157,
      "Ġbuilt": 4158,
      "ached": 4159,
      "Ġstring": 4160,
      "Ġissues": 4161,
      "Ġexperien": 4162,
      "ä½¿": 4163,
      "Ġpolitical": 4164,
      "alls": 4165,
      "ĠPal": 4166,
      "Ġfactors": 4167,
      "ĠAut": 4168,
      "Ġsuff": 4169,
      "Ġfish": 4170,
      "iento": 4171,
      "Ġclaim": 4172,
      "vey": 4173,
      "Ġinternational": 4174,
      "(t": 4175,
      "èģ": 4176,
      "Ð¼Ðµ": 4177,
      "curity": 4178,
      "ĠPat": 4179,
      "Ġgrad": 4180,
      "Ġeinem": 4181,
      "plied": 4182,
      "********": 4183,
      "Be": 4184,
      "ìĽ": 4185,
      "ambda": 4186,
      "ĠMor": 4187,
      "Ġnor": 4188,
      "ĠMarch": 4189,
      "imal": 4190,
      "aten": 4191,
      "rench": 4192,
      "ĠSw": 4193,
      "Ð³Ð¸": 4194,
      "Ġstress": 4195,
      "Ġfue": 4196,
      "ëł": 4197,
      "dom": 4198,
      "{eq": 4199,
      "uge": 4200,
      "Ø§Ùħ": 4201,
      "Ġactually": 4202,
      ".t": 4203,
      "ãĤ¦": 4204,
      "ĠChina": 4205,
      "With": 4206,
      "artment": 4207,
      "orge": 4208,
      "Ø®": 4209,
      "Ġindepend": 4210,
      "rack": 4211,
      "Ã¤n": 4212,
      "imm": 4213,
      "Ġtable": 4214,
      "All": 4215,
      "ãģĶ": 4216,
      "ĠSal": 4217,
      "ãģĤãĤĭ": 4218,
      "wa": 4219,
      "burg": 4220,
      "ĉif": 4221,
      "Ġetc": 4222,
      "Ġsymptoms": 4223,
      "ÐµÐ½Ð¸Ðµ": 4224,
      "Ġtour": 4225,
      "Ġhor": 4226,
      "pring": 4227,
      "eding": 4228,
      "\");Ċ": 4229,
      "æ¬": 4230,
      "ĠìĹ": 4231,
      "Ġparam": 4232,
      "-st": 4233,
      "osph": 4234,
      "Ġlove": 4235,
      "fr": 4236,
      "Ġpage": 4237,
      "79": 4238,
      "ky": 4239,
      "Ġpractice": 4240,
      "ç¬": 4241,
      "Â°": 4242,
      "Ġevents": 4243,
      "iple": 4244,
      "Ġwon": 4245,
      "iro": 4246,
      "oke": 4247,
      "Ġfront": 4248,
      "ĠPort": 4249,
      "ribute": 4250,
      "Ġmagn": 4251,
      "'Ċ": 4252,
      "Ġmechan": 4253,
      "ìĿ¸": 4254,
      "Ġdiagn": 4255,
      "Ġdass": 4256,
      "éĩĳ": 4257,
      "çŃī": 4258,
      "ischer": 4259,
      "Ġesc": 4260,
      "ĠaÃ±": 4261,
      "Ġyet": 4262,
      "Ġinitial": 4263,
      "ÑĤÐµ": 4264,
      "value": 4265,
      "åĲĮ": 4266,
      "Ġresources": 4267,
      "Ġlie": 4268,
      "Ð·Ð°": 4269,
      "ĠCounty": 4270,
      "ĠMod": 4271,
      "attle": 4272,
      "$.": 4273,
      "erve": 4274,
      "Ġclose": 4275,
      "IV": 4276,
      "æīĭ": 4277,
      "Ġmanagement": 4278,
      "ãģķãĤĮ": 4279,
      ")\\": 4280,
      "'Ã©": 4281,
      "net": 4282,
      "Ġeinen": 4283,
      "Ġot": 4284,
      "aches": 4285,
      "184": 4286,
      "ply": 4287,
      "Ġeffective": 4288,
      "ĠÑĨ": 4289,
      "lor": 4290,
      "aging": 4291,
      "respond": 4292,
      "Ġmethods": 4293,
      "Ġperformance": 4294,
      "empl": 4295,
      "Ġsqu": 4296,
      "ucle": 4297,
      "Ġfarm": 4298,
      "çĽ®": 4299,
      "Die": 4300,
      "Sh": 4301,
      "atus": 4302,
      "Ġpi": 4303,
      "Ġopportun": 4304,
      "ĠEs": 4305,
      "oon": 4306,
      "ION": 4307,
      "Ġpressure": 4308,
      "Ġpattern": 4309,
      "Ð³Ð°": 4310,
      "aling": 4311,
      "ë©": 4312,
      "cember": 4313,
      "Ġsurv": 4314,
      "cis": 4315,
      "Ġeste": 4316,
      "Ġalign": 4317,
      "Ġcam": 4318,
      "igma": 4319,
      "ester": 4320,
      "eln": 4321,
      "Value": 4322,
      "ĠÐĹ": 4323,
      "ani": 4324,
      "ĠÐºÐ¾Ð¼": 4325,
      "ĠChar": 4326,
      "Ġlat": 4327,
      "ÑħÐ¾Ð´": 4328,
      "Ġaccept": 4329,
      "Ġfalse": 4330,
      "ìľ¼": 4331,
      "Ġos": 4332,
      "Ġcomes": 4333,
      "ici": 4334,
      "ĠNor": 4335,
      "180": 4336,
      "Å¯": 4337,
      "Ġconsist": 4338,
      "idos": 4339,
      "lam": 4340,
      "Ġitself": 4341,
      "ĠNovember": 4342,
      "Ġclin": 4343,
      "ĠPaul": 4344,
      "alle": 4345,
      "oir": 4346,
      ".l": 4347,
      "lichen": 4348,
      "Ġsin": 4349,
      "Ġtamb": 4350,
      "Ġprovides": 4351,
      "erd": 4352,
      "Ġfire": 4353,
      "ĠĠĠĠĠĠĠĠĠĠĠĠ": 4354,
      "ski": 4355,
      "UR": 4356,
      "iene": 4357,
      "Ġreduce": 4358,
      "Ġremain": 4359,
      "Ġemer": 4360,
      "Ġwriting": 4361,
      "Ġparts": 4362,
      "Ã¡r": 4363,
      "embre": 4364,
      "ÐĶ": 4365,
      "äºİ": 4366,
      "ospital": 4367,
      "illa": 4368,
      "ĠSim": 4369,
      "Ġaz": 4370,
      "Ġwebs": 4371,
      "book": 4372,
      "-D": 4373,
      "Ġthemselves": 4374,
      "Ġmove": 4375,
      "fully": 4376,
      "ĠCons": 4377,
      "iforn": 4378,
      "Ġthing": 4379,
      "Ġestim": 4380,
      "rich": 4381,
      "ĠInternational": 4382,
      "çĤ": 4383,
      "ĠTrans": 4384,
      "includ": 4385,
      "Ġtown": 4386,
      "ç½": 4387,
      "Ġtask": 4388,
      "ÐµÐ»Ð¸": 4389,
      "date": 4390,
      "bert": 4391,
      "Ġinj": 4392,
      "-G": 4393,
      "Ġaverage": 4394,
      "-F": 4395,
      "Ð½Ð¾Ð²": 4396,
      "volution": 4397,
      "Ġoil": 4398,
      "ÙĦÙī": 4399,
      "ko": 4400,
      "rial": 4401,
      "Ġregular": 4402,
      ".j": 4403,
      "09": 4404,
      "eur": 4405,
      "atz": 4406,
      "Ġheld": 4407,
      "ëĭĪëĭ¤": 4408,
      "ĠMark": 4409,
      "åł´": 4410,
      "Ġscre": 4411,
      "Ġbring": 4412,
      "Ġtaking": 4413,
      "Ġnight": 4414,
      "Ġgas": 4415,
      "aine": 4416,
      "Ð¸Ð¼": 4417,
      "ãĥĲ": 4418,
      "avy": 4419,
      ".A": 4420,
      "ĠÐ¾Ð´": 4421,
      "ĠString": 4422,
      "Ð»ÐµÐ½": 4423,
      "Ġwent": 4424,
      "Ġhost": 4425,
      "$\\": 4426,
      "tes": 4427,
      "itude": 4428,
      "ĠComp": 4429,
      "Ġjo": 4430,
      "ĠRo": 4431,
      "Ġsaf": 4432,
      "Ġhours": 4433,
      "Ġavoid": 4434,
      "Ġevalu": 4435,
      "|-Ċ": 4436,
      "rix": 4437,
      "Ġmis": 4438,
      "Is": 4439,
      "aron": 4440,
      "ÑĸÐ½": 4441,
      "Ġexpress": 4442,
      "lie": 4443,
      "Ġconcent": 4444,
      "Ð¾Ð½Ð°": 4445,
      "itect": 4446,
      "Ġpositive": 4447,
      "Ġdog": 4448,
      "uj": 4449,
      "Ġdemon": 4450,
      "Ġhabit": 4451,
      "ixed": 4452,
      "ector": 4453,
      "è¿Ļ": 4454,
      "Ġseem": 4455,
      "ĠIndia": 4456,
      "ĠÐ¿Ð¾Ð´": 4457,
      "osa": 4458,
      "ĠHol": 4459,
      "antes": 4460,
      "ulations": 4461,
      "ĠJune": 4462,
      "oor": 4463,
      "Ġcompared": 4464,
      "Ġclos": 4465,
      "æĪĳ": 4466,
      "olic": 4467,
      "Ġprint": 4468,
      "Ŀ¼": 4469,
      "Ġunter": 4470,
      "07": 4471,
      "onn": 4472,
      "ĠMart": 4473,
      "ago": 4474,
      "Ġthird": 4475,
      "ads": 4476,
      "Ġability": 4477,
      "Ġsun": 4478,
      "zo": 4479,
      "ĠMich": 4480,
      "ãģĤãĤĬ": 4481,
      "Ġcontinu": 4482,
      "Ġstarted": 4483,
      "Ġwritten": 4484,
      "ania": 4485,
      "Ġstatic": 4486,
      "Exception": 4487,
      "itter": 4488,
      "reng": 4489,
      "ç©": 4490,
      "ĠÑĪ": 4491,
      "ummary": 4492,
      "Ġuns": 4493,
      "Ġdro": 4494,
      "éļ": 4495,
      "Ġsold": 4496,
      "ĠAp": 4497,
      "itte": 4498,
      "Ã¹": 4499,
      "ĠHigh": 4500,
      "Ġskin": 4501,
      "-g": 4502,
      "ccording": 4503,
      "Ġrele": 4504,
      "Ġstudent": 4505,
      "Ġfinan": 4506,
      "Ġcross": 4507,
      "Ġculture": 4508,
      "ÃŃn": 4509,
      "ĠSant": 4510,
      "pid": 4511,
      "Ġparents": 4512,
      "Ġmiss": 4513,
      "ĠÃº": 4514,
      ".D": 4515,
      "equ": 4516,
      "-y": 4517,
      "Ġlate": 4518,
      "upp": 4519,
      "pose": 4520,
      "Ġrecent": 4521,
      "Ġnecessary": 4522,
      "Ø²": 4523,
      "Ġdescribed": 4524,
      "Ġhy": 4525,
      "item": 4526,
      "err": 4527,
      "Ġimplement": 4528,
      "ë³": 4529,
      "Ðľ": 4530,
      "ĠÐ¾Ñģ": 4531,
      "Ġsense": 4532,
      "rage": 4533,
      "ÑĤÐ¾ÑĢ": 4534,
      "è£": 4535,
      "ãĤª": 4536,
      "Ð½Ð¸Ðº": 4537,
      "Ġlonger": 4538,
      "Ġcompos": 4539,
      "ili": 4540,
      "Ø¶": 4541,
      "Ġwalk": 4542,
      "ĠVol": 4543,
      ".M": 4544,
      "58": 4545,
      "Ġplayers": 4546,
      "No": 4547,
      "Ġbal": 4548,
      "ĠOb": 4549,
      "Ġskills": 4550,
      "ello": 4551,
      "pen": 4552,
      "è¶": 4553,
      "uen": 4554,
      "Ġmatter": 4555,
      "iana": 4556,
      "Ġrights": 4557,
      "Pr": 4558,
      "Ġcard": 4559,
      "åĪ°": 4560,
      "Ġhar": 4561,
      "_i": 4562,
      "=\\": 4563,
      "Ġhttp": 4564,
      "Ġvill": 4565,
      "come": 4566,
      "Ġreceived": 4567,
      "-se": 4568,
      "Ġofficial": 4569,
      "Ġsup": 4570,
      "cel": 4571,
      "Ġvideo": 4572,
      "Ġut": 4573,
      "Ġmedia": 4574,
      "ronic": 4575,
      "omas": 4576,
      "Ġtemperature": 4577,
      "ãĥĩ": 4578,
      "ĠÅ": 4579,
      "ieder": 4580,
      "Ġband": 4581,
      "Tr": 4582,
      "Ġpet": 4583,
      "ĠJahr": 4584,
      "],": 4585,
      "Ġpatient": 4586,
      "Ġunivers": 4587,
      "Ġvisit": 4588,
      "Ġrock": 4589,
      "300": 4590,
      "LL": 4591,
      "Ġexerc": 4592,
      "Ġcontr": 4593,
      "ois": 4594,
      "ĠLondon": 4595,
      "vin": 4596,
      "So": 4597,
      "éħ": 4598,
      "Ġcompan": 4599,
      "ãģĦãģŁ": 4600,
      "light": 4601,
      "mar": 4602,
      "Ġfol": 4603,
      "ĠJuly": 4604,
      "{fig": 4605,
      "Ġpsych": 4606,
      "æīĢ": 4607,
      "Ġdoor": 4608,
      "å½ĵ": 4609,
      "($": 4610,
      "Ġminutes": 4611,
      "ounter": 4612,
      "ederal": 4613,
      "Ġì§": 4614,
      "Ġsection": 4615,
      "Ġalbum": 4616,
      "Ġequip": 4617,
      "ris": 4618,
      "Ġpack": 4619,
      "gt": 4620,
      "aciones": 4621,
      "Ġerr": 4622,
      "Ġcentral": 4623,
      "ĉreturn": 4624,
      "Ġsort": 4625,
      "Ġthroughout": 4626,
      "Ġaccom": 4627,
      "Ġgro": 4628,
      "Ġ///": 4629,
      "Ġjed": 4630,
      "ĠìĦ": 4631,
      "Ġadminist": 4632,
      "-L": 4633,
      "ĠApp": 4634,
      "éĿ¢": 4635,
      "vention": 4636,
      "å¿ĥ": 4637,
      "Ġunderstanding": 4638,
      "Ġfru": 4639,
      "Ġalt": 4640,
      "ya": 4641,
      "ç¾": 4642,
      "ĠBel": 4643,
      "Ġtax": 4644,
      "public": 4645,
      "vere": 4646,
      "ĠRed": 4647,
      "Ġcustom": 4648,
      "irect": 4649,
      "EC": 4650,
      "Ġestablished": 4651,
      "Ġincreasing": 4652,
      "ĠÑģÐ¿": 4653,
      "mark": 4654,
      "Ġcomplete": 4655,
      "hn": 4656,
      "Ġclean": 4657,
      "ÑĦÐ¸": 4658,
      "Ġeconomic": 4659,
      "Ġdim": 4660,
      "·¸": 4661,
      "Ġmer": 4662,
      "oved": 4663,
      "Ġanimals": 4664,
      "_\\": 4665,
      "Ġextra": 4666,
      "Ġmaterials": 4667,
      "Ġsequ": 4668,
      "Ġproduce": 4669,
      "Ġmaintain": 4670,
      "183": 4671,
      "cias": 4672,
      "):Ċ": 4673,
      "Ġessential": 4674,
      "Ġinstit": 4675,
      "rs": 4676,
      "ali": 4677,
      "ãĤĪãģĨ": 4678,
      "Ġcontext": 4679,
      "Ġeasy": 4680,
      "ĠJah": 4681,
      "ĠÐ³Ð¾Ð´Ñĥ": 4682,
      "fin": 4683,
      "Ġaud": 4684,
      "åĬł": 4685,
      "Ġreading": 4686,
      "ëĿ¼": 4687,
      "xi": 4688,
      "ÑĥÑĤ": 4689,
      "Ġdecre": 4690,
      "Ġgrand": 4691,
      "ìĸ´": 4692,
      "ĠSoci": 4693,
      "len": 4694,
      "Ġuser": 4695,
      "oe": 4696,
      "zer": 4697,
      "Ġindividuals": 4698,
      "Ġorganiz": 4699,
      "utt": 4700,
      ".)": 4701,
      "ĠCenter": 4702,
      "ĠChe": 4703,
      "_n": 4704,
      "\".Ċ": 4705,
      "ãģ§ãģį": 4706,
      "Ġhot": 4707,
      "Ġdeep": 4708,
      "ãĥĥãĤ¯": 4709,
      "Ġformer": 4710,
      "ilit": 4711,
      "pret": 4712,
      "Ġcode": 4713,
      "Ġinn": 4714,
      "æķ°": 4715,
      "jet": 4716,
      "Ġautom": 4717,
      "Ġ?": 4718,
      "ĠWeb": 4719,
      "ë¶": 4720,
      "ging": 4721,
      "aily": 4722,
      "Ġkm": 4723,
      "Ġhon": 4724,
      "ç¤¾": 4725,
      "ĠDan": 4726,
      "Ġconne": 4727,
      "ĠFebru": 4728,
      "Ġparte": 4729,
      "Ġadded": 4730,
      "ÃŃs": 4731,
      "ĠÑĢÐ°Ð·": 4732,
      "adt": 4733,
      "eren": 4734,
      "Ġinvolved": 4735,
      "Ġdesigned": 4736,
      "_c": 4737,
      "ares": 4738,
      "Ġbehavior": 4739,
      "å»": 4740,
      "ĠParis": 4741,
      "å¤ĸ": 4742,
      "Ðŀ": 4743,
      "ë°": 4744,
      "ufact": 4745,
      "Ð¶Ðµ": 4746,
      "ãģĦãģ¦": 4747,
      "reet": 4748,
      "ĠJanuary": 4749,
      "Ġfeatures": 4750,
      "ismo": 4751,
      "Ġgreen": 4752,
      "Ġtrack": 4753,
      "fol": 4754,
      "ĠWhile": 4755,
      "At": 4756,
      "Ġclimate": 4757,
      "View": 4758,
      "Ġincludes": 4759,
      "EM": 4760,
      "è½": 4761,
      "æĢĿ": 4762,
      "igr": 4763,
      "Ġrelat": 4764,
      "/s": 4765,
      "ead": 4766,
      "vest": 4767,
      "ãģ¨ãģĦãģĨ": 4768,
      "isl": 4769,
      "ĠFrench": 4770,
      "irit": 4771,
      "Ø£": 4772,
      "CC": 4773,
      "ĠAus": 4774,
      "abet": 4775,
      "ĠOctober": 4776,
      "aged": 4777,
      "azione": 4778,
      "iden": 4779,
      "ĠSur": 4780,
      "_p": 4781,
      "color": 4782,
      "ifornia": 4783,
      "Ġing": 4784,
      "ÑĢÑı": 4785,
      "Ġmes": 4786,
      "cho": 4787,
      "BN": 4788,
      "ĠDon": 4789,
      "position": 4790,
      "Ġfra": 4791,
      "æ°´": 4792,
      "Ġindustry": 4793,
      "Ġsobre": 4794,
      "Ġdoing": 4795,
      "file": 4796,
      "ĠÑĺÐµ": 4797,
      "Ġproduced": 4798,
      "ĠScience": 4799,
      "ube": 4800,
      "ãĥĸ": 4801,
      "Ġimprove": 4802,
      "ÑĸÑĤ": 4803,
      "ìŀĲ": 4804,
      "ìĭľ": 4805,
      "ĠÙĥ": 4806,
      "Ġattempt": 4807,
      "ìĬ¤": 4808,
      "æŁ": 4809,
      "ãĥī": 4810,
      "ĠMore": 4811,
      "ership": 4812,
      "å¯¹": 4813,
      "========": 4814,
      "Ġhealthy": 4815,
      "ĠDis": 4816,
      "ĠInt": 4817,
      "ĠUnivers": 4818,
      "essor": 4819,
      "Ġmultiple": 4820,
      "aven": 4821,
      "Ġforce": 4822,
      "Ġther": 4823,
      "hing": 4824,
      "ĠJew": 4825,
      "kn": 4826,
      "Ġelement": 4827,
      "Ġoutside": 4828,
      "ĠPress": 4829,
      "Mod": 4830,
      "Ġresearchers": 4831,
      "ä¿Ŀ": 4832,
      "Ġpoor": 4833,
      "Ġaltern": 4834,
      "ĠRet": 4835,
      "Ġdiet": 4836,
      "åıĸ": 4837,
      "è³": 4838,
      "Ġexpression": 4839,
      "Ġcapt": 4840,
      "Ġmodels": 4841,
      "Ġses": 4842,
      "Ġprior": 4843,
      "Ġwor": 4844,
      "Ġtrou": 4845,
      "ĠMont": 4846,
      "angle": 4847,
      "iot": 4848,
      "}.": 4849,
      "abe": 4850,
      "Ð´Ñĥ": 4851,
      "iano": 4852,
      "Ġcomputer": 4853,
      "Ġcorrespond": 4854,
      "Ġwest": 4855,
      "rought": 4856,
      "istry": 4857,
      "ÑģÑĮÐº": 4858,
      "ibli": 4859,
      "äº§": 4860,
      "Ġroom": 4861,
      "Ġbill": 4862,
      "å¢": 4863,
      "Ġsomet": 4864,
      "ä»ĸ": 4865,
      "}^{": 4866,
      "ĠRober": 4867,
      "åģ": 4868,
      "62": 4869,
      "liche": 4870,
      "Ġtu": 4871,
      "fÃ¼": 4872,
      "ĠBro": 4873,
      "ìĥ": 4874,
      "Ġtitle": 4875,
      "_m": 4876,
      "Object": 4877,
      "ika": 4878,
      "Ġissue": 4879,
      "(s": 4880,
      "}_{": 4881,
      "-H": 4882,
      "'h": 4883,
      "ãģ«ãģª": 4884,
      "Ġgi": 4885,
      "ĠAssoci": 4886,
      "Ġlack": 4887,
      "raz": 4888,
      "ìĤ¬": 4889,
      "ĠAdd": 4890,
      "Ġsleep": 4891,
      "/j": 4892,
      "urb": 4893,
      "Ġfam": 4894,
      "ensity": 4895,
      "Ġlength": 4896,
      "stell": 4897,
      "mm": 4898,
      "Ġlooking": 4899,
      "Ġproperty": 4900,
      "oj": 4901,
      "Ġprotein": 4902,
      "Ã®": 4903,
      "Ġcorrect": 4904,
      "mathbb": 4905,
      "Ð¼ÐµÐ½": 4906,
      "Ġlocated": 4907,
      "OT": 4908,
      "Ġprimary": 4909,
      "150": 4910,
      "reich": 4911,
      "ÑīÐ¸": 4912,
      "ãĤº": 4913,
      "ellow": 4914,
      "IM": 4915,
      "Ġsimply": 4916,
      "Ġê³": 4917,
      "cles": 4918,
      "ĠArch": 4919,
      "http": 4920,
      "arily": 4921,
      "Â»,": 4922,
      "PS": 4923,
      "Ġweb": 4924,
      "width": 4925,
      "acional": 4926,
      "box": 4927,
      "Ġsong": 4928,
      "Ġthus": 4929,
      "Ġveg": 4930,
      "ĠDi": 4931,
      "rav": 4932,
      "ãĥģ": 4933,
      "rote": 4934,
      "è©": 4935,
      "'une": 4936,
      "ĠÐ¥": 4937,
      "phi": 4938,
      "Ã¸": 4939,
      "61": 4940,
      "ÙĬØ±": 4941,
      "ulture": 4942,
      "ĠKe": 4943,
      "ecut": 4944,
      "Ġadditional": 4945,
      "63": 4946,
      "ï¼ļ": 4947,
      "ãĤ¨": 4948,
      "Ġcit": 4949,
      "ema": 4950,
      "Ġcontinue": 4951,
      "(Ċ": 4952,
      "ÑĤÐ¸Ð²": 4953,
      "ĠDepartment": 4954,
      "Ġstreng": 4955,
      "Ġcaused": 4956,
      "ĠGerman": 4957,
      "-R": 4958,
      "nb": 4959,
      "Ġont": 4960,
      "Ġdraw": 4961,
      "Ġschools": 4962,
      "Ġpict": 4963,
      "ĠEuropean": 4964,
      "Ġinstall": 4965,
      "æĸĩ": 4966,
      "aries": 4967,
      "ãĤ»": 4968,
      "Ġbelieve": 4969,
      "aria": 4970,
      "Ð¾Ð²Ð°": 4971,
      "âĢ¢": 4972,
      "Ġproced": 4973,
      "Ġconstit": 4974,
      "sec": 4975,
      "Ġcapac": 4976,
      "Ġinstead": 4977,
      "Ðĳ": 4978,
      "Ġheat": 4979,
      "Ġvit": 4980,
      "owie": 4981,
      "ÑĨÐ¸Ð¸": 4982,
      "Ġmember": 4983,
      "icos": 4984,
      "DE": 4985,
      "ĠEarth": 4986,
      "section": 4987,
      "57": 4988,
      "Ġsound": 4989,
      "().": 4990,
      "ĠfÃ¶r": 4991,
      "Ġdidn": 4992,
      "Ġcomme": 4993,
      "ĠCalifornia": 4994,
      "fort": 4995,
      "Ġ*Ċ": 4996,
      "Get": 4997,
      "Ġcompar": 4998,
      "Ġox": 4999,
      "roy": 5000,
      "stance": 5001,
      "arrow": 5002,
      "ĠÐ¿Ð¾Ñģ": 5003,
      "-\\": 5004,
      "Test": 5005,
      "æľŁ": 5006,
      "-e": 5007,
      "éĸĵ": 5008,
      "Ġsearch": 5009,
      "Ġhyd": 5010,
      "æ¥Ń": 5011,
      "see": 5012,
      "Ġdeliver": 5013,
      "Ġnur": 5014,
      "Ġsolution": 5015,
      "arter": 5016,
      "nder": 5017,
      "Ġbit": 5018,
      "ynam": 5019,
      "Ġdifference": 5020,
      "anks": 5021,
      "ãģ§ãģ¯": 5022,
      "ĠAir": 5023,
      "ĠGeneral": 5024,
      "with": 5025,
      "cm": 5026,
      "Ġsn": 5027,
      "ĠÃ©tÃ©": 5028,
      "Ġexperiment": 5029,
      "Ġast": 5030,
      "ĠDecember": 5031,
      "Ġmatch": 5032,
      "ags": 5033,
      "Ġdoesn": 5034,
      "Ð°Ð½Ð¸Ñı": 5035,
      "Hist": 5036,
      "ĠBi": 5037,
      "æ°Ĺ": 5038,
      "ĠØ¥": 5039,
      "Ġclub": 5040,
      "Ð²Ð°Ð½": 5041,
      "87": 5042,
      "zn": 5043,
      "ä¸»": 5044,
      "Ġdivers": 5045,
      "Ġsea": 5046,
      "Ġcalcul": 5047,
      "ĠÐ²ÑĸÐ´": 5048,
      "ĠÃ®n": 5049,
      "ĠsÃ©": 5050,
      "oto": 5051,
      "ael": 5052,
      "ilities": 5053,
      "Ġattention": 5054,
      "Ġ()": 5055,
      "éĩį": 5056,
      "è¦ĭ": 5057,
      "Ġexpected": 5058,
      "ãģ°": 5059,
      "uman": 5060,
      "Ġdate": 5061,
      "olf": 5062,
      "Ġmeaning": 5063,
      "ĠÑĢÐ¾Ðº": 5064,
      "ĪĴ": 5065,
      "Ġtend": 5066,
      "km": 5067,
      "airs": 5068,
      "mercial": 5069,
      "Ġpal": 5070,
      "Ġfast": 5071,
      "anning": 5072,
      "Ġgreater": 5073,
      "bit": 5074,
      "å®ī": 5075,
      "ä¸İ": 5076,
      "vement": 5077,
      "iÃ©n": 5078,
      "ĠØ§ÙĦØª": 5079,
      "ibrary": 5080,
      "Ġuses": 5081,
      "Ġerror": 5082,
      "Ġfu": 5083,
      "Ġful": 5084,
      "uration": 5085,
      "ĠSam": 5086,
      "array": 5087,
      "Ġspect": 5088,
      "ĠDavid": 5089,
      "Ġwild": 5090,
      "Ġactive": 5091,
      "ĠInstitute": 5092,
      "ĠVir": 5093,
      "ĠRiver": 5094,
      "Ġmut": 5095,
      "ady": 5096,
      "Ġbehind": 5097,
      "59": 5098,
      "Ġtransport": 5099,
      "89": 5100,
      "aker": 5101,
      "ë¬": 5102,
      "Ġ!=": 5103,
      "Sc": 5104,
      "vi": 5105,
      "Ġich": 5106,
      "Ġreach": 5107,
      "Ġlives": 5108,
      "ĠÑĤÐ°Ðº": 5109,
      "Ġshare": 5110,
      "Ġcateg": 5111,
      "ĠTechn": 5112,
      "Ġcivil": 5113,
      "riate": 5114,
      "itting": 5115,
      "Ġsources": 5116,
      "Ġdemonstr": 5117,
      "Ðĺ": 5118,
      "åĲį": 5119,
      "Ġbien": 5120,
      "ĠĠĠĠĠĠĠĠĠĠĠĠĠ": 5121,
      "ĠMad": 5122,
      "rt": 5123,
      "Ġtravel": 5124,
      "Ġsig": 5125,
      "Ġadapt": 5126,
      "UT": 5127,
      "Ġgetting": 5128,
      "Ġlimit": 5129,
      "ĠBlack": 5130,
      "ĠGen": 5131,
      "å¾Ĺ": 5132,
      "asons": 5133,
      "andom": 5134,
      "£¼": 5135,
      "Ġchemical": 5136,
      "las": 5137,
      "Ġsociety": 5138,
      "Ġspread": 5139,
      "Ġcat": 5140,
      "Ġanswer": 5141,
      "Ġtiss": 5142,
      "nes": 5143,
      "Ġnumer": 5144,
      "Ġjud": 5145,
      "Ġwebsite": 5146,
      "Ġauth": 5147,
      "Ãī": 5148,
      "Ġsometimes": 5149,
      "ĠThen": 5150,
      "room": 5151,
      "ĠÎ": 5152,
      "Ġtheory": 5153,
      "Ġëĭ": 5154,
      "rum": 5155,
      "ĠDas": 5156,
      "AG": 5157,
      "ĠìŀĪ": 5158,
      "ĠRec": 5159,
      "Ġdesp": 5160,
      "Ġinside": 5161,
      "Ġbad": 5162,
      "Ġord": 5163,
      "inated": 5164,
      "Ġreve": 5165,
      "\"><": 5166,
      "Ġnamed": 5167,
      "Ġdeux": 5168,
      "Ġrat": 5169,
      "Ġnation": 5170,
      "but": 5171,
      "Ñļ": 5172,
      "Ġtakes": 5173,
      "Ġbur": 5174,
      "Ġexact": 5175,
      "print": 5176,
      "ĠCanada": 5177,
      "Ġpued": 5178,
      "åĪ©": 5179,
      "Ġvariety": 5180,
      "Ġmovement": 5181,
      "ĠSol": 5182,
      "Ð¾Ñĩ": 5183,
      "inate": 5184,
      "Ġalc": 5185,
      "Ġbound": 5186,
      "Ø°": 5187,
      "Ġtold": 5188,
      "ĠEngland": 5189,
      "Ġlines": 5190,
      "Ġidentify": 5191,
      "å°ı": 5192,
      "AB": 5193,
      "Ġcele": 5194,
      "Ġprogress": 5195,
      "ëŀ": 5196,
      "SS": 5197,
      "ancy": 5198,
      "Ġcontribut": 5199,
      "Ð»Ñĥ": 5200,
      "Ġmap": 5201,
      "Ġrom": 5202,
      "unicip": 5203,
      "());Ċ": 5204,
      "Ġcapital": 5205,
      "ĠFirst": 5206,
      "iny": 5207,
      "Ġlabor": 5208,
      "ä»Ĭ": 5209,
      "One": 5210,
      "._": 5211,
      "Ġfig": 5212,
      "ulated": 5213,
      "Ġprobably": 5214,
      "Ġarm": 5215,
      "Ġtherefore": 5216,
      "æĦŁ": 5217,
      "ĠEnt": 5218,
      "hood": 5219,
      "usion": 5220,
      "cos": 5221,
      "point": 5222,
      "hen": 5223,
      "iner": 5224,
      "];Ċ": 5225,
      "ç¬¬": 5226,
      "actions": 5227,
      "ãĥĭ": 5228,
      "-de": 5229,
      "Ġmort": 5230,
      "Ne": 5231,
      "ÑĸÑĹ": 5232,
      "ĠÐ´Ðµ": 5233,
      "ĠMet": 5234,
      "Â·": 5235,
      "Ġvict": 5236,
      "ĠWash": 5237,
      "Ġsoil": 5238,
      "ÙĪÙĦ": 5239,
      "ÙĩØ§": 5240,
      "Ġstatus": 5241,
      "Ġnumbers": 5242,
      "Ġpresident": 5243,
      "Ġtout": 5244,
      "Ġunique": 5245,
      "Ġborn": 5246,
      "hat": 5247,
      "agen": 5248,
      "CH": 5249,
      "Ġasked": 5250,
      "Ð½Ð°Ñı": 5251,
      "verse": 5252,
      "ĠHouse": 5253,
      "ëĵ¤": 5254,
      "Ġlab": 5255,
      "rick": 5256,
      "oles": 5257,
      "Ġbacter": 5258,
      "ĠCollege": 5259,
      "ìľ¼ë¡ľ": 5260,
      "lambda": 5261,
      "bt": 5262,
      "ĠÑģÐµ": 5263,
      "ĠLou": 5264,
      "Ġcred": 5265,
      "rod": 5266,
      "101": 5267,
      "Ġconserv": 5268,
      "181": 5269,
      "Ġapplication": 5270,
      "Ġbott": 5271,
      "Ġwrite": 5272,
      "íĸ": 5273,
      "Ġfootball": 5274,
      "Ġstay": 5275,
      "Ġparticularly": 5276,
      "Ġcand": 5277,
      "ota": 5278,
      "mann": 5279,
      ".f": 5280,
      "ÑıÑĤ": 5281,
      "Ġmanufact": 5282,
      "è¡¨": 5283,
      "ä»£": 5284,
      "ĠDem": 5285,
      "Ġquite": 5286,
      "çł": 5287,
      "Ġreleased": 5288,
      "Ġinstance": 5289,
      "Ġsomeone": 5290,
      "Ġpolicy": 5291,
      "ĠRich": 5292,
      "ĠìĪĺ": 5293,
      "Ð½Ð¸Ð¹": 5294,
      "ÐµÐ¶": 5295,
      "omy": 5296,
      "Ġpoll": 5297,
      "Ġpaint": 5298,
      "^{\\": 5299,
      "resh": 5300,
      "New": 5301,
      "iens": 5302,
      "Ġpel": 5303,
      "Ġmonth": 5304,
      "pm": 5305,
      "Ġlost": 5306,
      "Ġharm": 5307,
      "coming": 5308,
      "Ġwood": 5309,
      "icas": 5310,
      "Ġsche": 5311,
      "Ġperformed": 5312,
      "Ġlarger": 5313,
      "Ġprograms": 5314,
      "just": 5315,
      "Ġcauses": 5316,
      "Ġhimself": 5317,
      "âĢĲ": 5318,
      "Ġdrink": 5319,
      "IG": 5320,
      "Ġalthough": 5321,
      "Ġstri": 5322,
      "egen": 5323,
      "Ġìĺ": 5324,
      "-T": 5325,
      "ĠHen": 5326,
      "Ġdirectly": 5327,
      "å§": 5328,
      "Ġimmedi": 5329,
      "Ġsoon": 5330,
      "Ġagre": 5331,
      "agement": 5332,
      "aÃ±": 5333,
      "Ġcompanies": 5334,
      "blic": 5335,
      "iche": 5336,
      "ĠëĤ": 5337,
      "ville": 5338,
      "Ġcollect": 5339,
      "ĠISBN": 5340,
      "apter": 5341,
      "02": 5342,
      "Ġforms": 5343,
      "Ġleading": 5344,
      "ÑĥÐ¿": 5345,
      "ÑĥÑİ": 5346,
      "Ġdefined": 5347,
      "oute": 5348,
      "182": 5349,
      "ĠÃī": 5350,
      "unch": 5351,
      "ãĥ¼ãĥ«": 5352,
      "Ġbird": 5353,
      "Ġeyes": 5354,
      "ĠÑģÐ²": 5355,
      "Ø«": 5356,
      "rael": 5357,
      "ĠFe": 5358,
      "Ġthreat": 5359,
      "Man": 5360,
      "Ġimages": 5361,
      "Ġsec": 5362,
      "çĿ": 5363,
      "uts": 5364,
      "Ð¾ÑĤÐ¾ÑĢ": 5365,
      "Ġtransm": 5366,
      "ĠLu": 5367,
      "_S": 5368,
      "ously": 5369,
      "['": 5370,
      "ÐµÐ½Ð°": 5371,
      "çĽ¸": 5372,
      "Ġslow": 5373,
      "Ð°Ð½Ð°": 5374,
      "æĦı": 5375,
      "Ġchalleng": 5376,
      "Ġog": 5377,
      "joy": 5378,
      "çĹ": 5379,
      "nbsp": 5380,
      "Ġpen": 5381,
      "ĠProf": 5382,
      "term": 5383,
      "-to": 5384,
      "este": 5385,
      "ĠUs": 5386,
      "Ġbenefits": 5387,
      "ponse": 5388,
      "Ġpredict": 5389,
      "Ðĵ": 5390,
      "lymp": 5391,
      "Ġemot": 5392,
      "Ġgenerally": 5393,
      "ĠìĤ¬": 5394,
      "Ġdamage": 5395,
      "Ġassert": 5396,
      "Ġanti": 5397,
      "icon": 5398,
      "ĠÃ¶": 5399,
      "Ġsoftware": 5400,
      "Ġcolon": 5401,
      "idge": 5402,
      "elles": 5403,
      "Ġextern": 5404,
      "Ġelements": 5405,
      "ĠWilliam": 5406,
      "Ð¸Ð²": 5407,
      "Ġwir": 5408,
      "Ġstop": 5409,
      "Ġnucle": 5410,
      "ĠdÃ©c": 5411,
      "ÐºÑĢÐ°": 5412,
      "ĠDist": 5413,
      "rund": 5414,
      "Ð½Ð¸Ñħ": 5415,
      "Class": 5416,
      "Ġencou": 5417,
      "ãģªãģ©": 5418,
      "ĠÐºÐ¾Ð½": 5419,
      "ĠMa": 5420,
      "ĠLos": 5421,
      "ìĺ": 5422,
      "Ġsen": 5423,
      "list": 5424,
      "Ġgir": 5425,
      "very": 5426,
      "Web": 5427,
      "Ġaspect": 5428,
      "Ġacqu": 5429,
      "Ġexpos": 5430,
      "Ġensure": 5431,
      "Ġtree": 5432,
      "Ġstar": 5433,
      "Ġdark": 5434,
      "Ġbooks": 5435,
      "Ġstage": 5436,
      "íĻ": 5437,
      "Ġvirus": 5438,
      "Ġrequest": 5439,
      "ĠFrom": 5440,
      "Ġdied": 5441,
      "å¦": 5442,
      "Ġsaw": 5443,
      "Ġfeet": 5444,
      "ĠMag": 5445,
      "ĠJust": 5446,
      "edia": 5447,
      "stant": 5448,
      "Ġdistribution": 5449,
      "ĠSl": 5450,
      "ila": 5451,
      "fs": 5452,
      "',Ċ": 5453,
      "Over": 5454,
      "Ġ{\\": 5455,
      "Add": 5456,
      "ä»¬": 5457,
      "ĠÐ´Ð»Ñı": 5458,
      "ading": 5459,
      "trans": 5460,
      "Ġenvironmental": 5461,
      "Ã¨me": 5462,
      "Ġmid": 5463,
      "fficient": 5464,
      "inder": 5465,
      "aste": 5466,
      "ê³¼": 5467,
      "Ġfather": 5468,
      "Ġrev": 5469,
      "Key": 5470,
      "ĠCour": 5471,
      "ĠSk": 5472,
      "Ġactual": 5473,
      "Ġbasic": 5474,
      "isf": 5475,
      "Ġwhose": 5476,
      "rew": 5477,
      "Ġstrength": 5478,
      "stra": 5479,
      "ĠChristian": 5480,
      "Ġinfl": 5481,
      "Ð¾Ð³ÑĢÐ°": 5482,
      "ega": 5483,
      "Ġgard": 5484,
      "ĠMuse": 5485,
      "Il": 5486,
      "nel": 5487,
      "Ġauss": 5488,
      "haps": 5489,
      "edic": 5490,
      "Ġfeature": 5491,
      "ĠJames": 5492,
      "Ġvirt": 5493,
      "æĥħ": 5494,
      "Ġcarbon": 5495,
      "Ġnoch": 5496,
      "ÅĽci": 5497,
      "ĠÙĪØ§ÙĦ": 5498,
      "ĠCong": 5499,
      "ĠEnd": 5500,
      "ĠEduc": 5501,
      "Ġearth": 5502,
      "una": 5503,
      "åĬ¨": 5504,
      "zie": 5505,
      "Ġallows": 5506,
      "æ´»": 5507,
      "ouncil": 5508,
      "è»": 5509,
      "-n": 5510,
      "ĠPresident": 5511,
      "EL": 5512,
      "Ġtransl": 5513,
      "isions": 5514,
      "'ll": 5515,
      "External": 5516,
      "Ġmilitary": 5517,
      "400": 5518,
      "Ð°Ð½Ð´": 5519,
      "Ġfight": 5520,
      "Ġze": 5521,
      "Ġobserved": 5522,
      "weise": 5523,
      "ĠsiÄĻ": 5524,
      "Ġfat": 5525,
      "Ġago": 5526,
      "osoph": 5527,
      "iller": 5528,
      "Ġmother": 5529,
      "Ġ/**Ċ": 5530,
      "Ġthrow": 5531,
      "yst": 5532,
      "Ġcontains": 5533,
      "amer": 5534,
      "éĩı": 5535,
      "pat": 5536,
      "ãģ«ãģ¯": 5537,
      "Ġaccur": 5538,
      "ç»ı": 5539,
      "pace": 5540,
      "Ġelectric": 5541,
      "ĠTor": 5542,
      "Ġcop": 5543,
      "Ġshowed": 5544,
      "function": 5545,
      "ĠDen": 5546,
      "inese": 5547,
      "åĪ¶": 5548,
      "Ġnorth": 5549,
      "Ġoptions": 5550,
      "Ġinterpret": 5551,
      "å±ķ": 5552,
      "%)": 5553,
      "Ġcenter": 5554,
      "ÑĸÐ»ÑĮ": 5555,
      "ono": 5556,
      "Ġterrit": 5557,
      "Ġcommand": 5558,
      "ĠFebruary": 5559,
      "ijn": 5560,
      "ìŀ¥": 5561,
      "Ġserious": 5562,
      "IP": 5563,
      "erk": 5564,
      "ĠYour": 5565,
      "Ġfait": 5566,
      "ING": 5567,
      "çī¹": 5568,
      "ÐºÑĤ": 5569,
      "uv": 5570,
      "Ġapprop": 5571,
      "ĠCD": 5572,
      "uls": 5573,
      "ilon": 5574,
      "ĠNach": 5575,
      "Ġprep": 5576,
      "aught": 5577,
      "Ġconstruction": 5578,
      "Ġdar": 5579,
      "Ġeasily": 5580,
      "Ġstra": 5581,
      "Ð¾Ð»Ð¸": 5582,
      "inct": 5583,
      "ãģĺ": 5584,
      "used": 5585,
      "Ġsituation": 5586,
      "cons": 5587,
      "ĠIndian": 5588,
      "aud": 5589,
      "ç¥": 5590,
      "ori": 5591,
      "ĠTra": 5592,
      "Ã¡g": 5593,
      "Ġju": 5594,
      "Ã©ri": 5595,
      "Ã¤ng": 5596,
      "yr": 5597,
      "Ġtelev": 5598,
      "Ġbed": 5599,
      "Bl": 5600,
      "Ġlig": 5601,
      "ocr": 5602,
      "Ġacid": 5603,
      "entes": 5604,
      "Ġaim": 5605,
      "reek": 5606,
      "Ġhands": 5607,
      "ĠMost": 5608,
      "ieren": 5609,
      "Ġcollection": 5610,
      "Table": 5611,
      "ĠLife": 5612,
      "inger": 5613,
      "Ġfollowed": 5614,
      "è¿Ľ": 5615,
      "Ġpow": 5616,
      "Ġcook": 5617,
      "Ġalle": 5618,
      "Ġdir": 5619,
      "Ġfactor": 5620,
      "Ġestablish": 5621,
      "ĠCap": 5622,
      "pped": 5623,
      "å»º": 5624,
      "oo": 5625,
      "ÈĻi": 5626,
      "nia": 5627,
      "Ġë³": 5628,
      "owe": 5629,
      "Ġfavor": 5630,
      "Ã¤hr": 5631,
      "ĠÄį": 5632,
      "Ġanimal": 5633,
      "03": 5634,
      "Ġinput": 5635,
      "æıĲ": 5636,
      "ãĥ¼ãĥĪ": 5637,
      "Ġuma": 5638,
      "Ġmob": 5639,
      "Ð³ÑĢÐ°": 5640,
      "Ġplayed": 5641,
      "Ġnos": 5642,
      "onder": 5643,
      "ĠWashington": 5644,
      "Ġpromot": 5645,
      "inz": 5646,
      "orb": 5647,
      "olo": 5648,
      "Ġmole": 5649,
      "Ġzwe": 5650,
      "ĠJes": 5651,
      "Ġ(*": 5652,
      "Ġdemand": 5653,
      "Ġsafety": 5654,
      "Ãªme": 5655,
      "Ġideas": 5656,
      "ĠTest": 5657,
      "Ã¦": 5658,
      "itis": 5659,
      "ĠFrank": 5660,
      "ĠWork": 5661,
      "Ġdell": 5662,
      "ÐµÐ½Ð½Ñı": 5663,
      "Ġhighly": 5664,
      "ÙĪÙĨ": 5665,
      "Ġtill": 5666,
      "Ġaber": 5667,
      "Ġmention": 5668,
      "ìĹĲìĦľ": 5669,
      "Ð¢": 5670,
      "åĽŀ": 5671,
      "cip": 5672,
      "ĠRad": 5673,
      "band": 5674,
      "iency": 5675,
      "Ġdecision": 5676,
      "merican": 5677,
      "ĠEast": 5678,
      "annel": 5679,
      "ENT": 5680,
      "gest": 5681,
      "ĠkÃ¶n": 5682,
      "Ø§Ø³": 5683,
      "Ġtowards": 5684,
      "ĠpÃ¥": 5685,
      "Ġdetermine": 5686,
      "Ġsust": 5687,
      "ĠØ§ÙĦØ£": 5688,
      "Ġfriends": 5689,
      "åķĨ": 5690,
      "Ġdin": 5691,
      "æĺİ": 5692,
      "-year": 5693,
      "Ġstation": 5694,
      "Ġnews": 5695,
      "cd": 5696,
      "ego": 5697,
      "rite": 5698,
      "Em": 5699,
      "UN": 5700,
      "ĠAfrica": 5701,
      "ãĥĳ": 5702,
      "MS": 5703,
      "mathbf": 5704,
      "ãĥ³ãĤ°": 5705,
      "isms": 5706,
      "ĠMit": 5707,
      "ãĥł": 5708,
      "Ð£": 5709,
      "æ¶": 5710,
      "Ġframe": 5711,
      "nie": 5712,
      "Ġquickly": 5713,
      "è¿ĩ": 5714,
      "Ġgames": 5715,
      "'m": 5716,
      "oring": 5717,
      "Ġgraph": 5718,
      "Ġgrowing": 5719,
      "ĠRoman": 5720,
      "ĠWil": 5721,
      "Ġtrav": 5722,
      "Ġmehr": 5723,
      "ãĥ¼ãĤ¹": 5724,
      "ãĢĲ": 5725,
      "))Ċ": 5726,
      "Ġdiff": 5727,
      "izes": 5728,
      "encia": 5729,
      "BC": 5730,
      "Ġunit": 5731,
      "rc": 5732,
      "uÃŁ": 5733,
      "Ġlimited": 5734,
      "ãĥ¥": 5735,
      "ĠMac": 5736,
      "ĠSaint": 5737,
      "ifest": 5738,
      "ÐºÐµ": 5739,
      "bal": 5740,
      "Ġvoor": 5741,
      "Ġbra": 5742,
      "Ġroku": 5743,
      "Ġmount": 5744,
      "ami": 5745,
      "Ġveh": 5746,
      "Ġwarm": 5747,
      "Ġlocation": 5748,
      "Ġcritical": 5749,
      "oken": 5750,
      "ĠDay": 5751,
      "ãĢĳ": 5752,
      "sen": 5753,
      "Ġsouth": 5754,
      "ãģĿãģ®": 5755,
      "Ġtraditional": 5756,
      "Ġcette": 5757,
      "uto": 5758,
      "Ġconstant": 5759,
      "issions": 5760,
      "ocol": 5761,
      "ĠÐķ": 5762,
      "igned": 5763,
      "rier": 5764,
      "Ġwide": 5765,
      "ting": 5766,
      "æľº": 5767,
      "Ġcru": 5768,
      "aires": 5769,
      "schaft": 5770,
      "Ġweeks": 5771,
      "Ġemp": 5772,
      "Ġbirth": 5773,
      "ingu": 5774,
      "Ġê·¸": 5775,
      "Ġfinancial": 5776,
      "ÑĥÐ½": 5777,
      "è·": 5778,
      "heim": 5779,
      "Ġsites": 5780,
      "Ġmessage": 5781,
      "Ġshall": 5782,
      "perty": 5783,
      "ĠChurch": 5784,
      "Int": 5785,
      "ĠMex": 5786,
      "Ð°Ð·": 5787,
      "Ġnames": 5788,
      "Ġdaily": 5789,
      "ĠTer": 5790,
      "File": 5791,
      "oyal": 5792,
      "ĠAv": 5793,
      "iu": 5794,
      "åıĬ": 5795,
      "ova": 5796,
      "Ġven": 5797,
      "-K": 5798,
      "Ġnothing": 5799,
      "ĠJournal": 5800,
      "Ġkon": 5801,
      "ĠAuf": 5802,
      "ĠDiv": 5803,
      "Ġbegin": 5804,
      "Ġproperties": 5805,
      "Ð»ÐµÐ´": 5806,
      "Ġprofessional": 5807,
      "asta": 5808,
      "omin": 5809,
      "Ġbeaut": 5810,
      "FA": 5811,
      "Ġhelps": 5812,
      "From": 5813,
      "ì²": 5814,
      "ruck": 5815,
      "active": 5816,
      "orage": 5817,
      "ÑĨÐ°": 5818,
      "eline": 5819,
      "hl": 5820,
      "Ġjour": 5821,
      "IR": 5822,
      "èĬ": 5823,
      "ĠGovern": 5824,
      "04": 5825,
      "Ġconstruct": 5826,
      "idents": 5827,
      "ellen": 5828,
      "undred": 5829,
      "Ġ&&": 5830,
      "Ġdisplay": 5831,
      "Ġveget": 5832,
      "çİ°": 5833,
      "atin": 5834,
      "Ġvacc": 5835,
      "Ġtransfer": 5836,
      "çĤ¹": 5837,
      "ãĤį": 5838,
      "Ġkom": 5839,
      "Ġgoal": 5840,
      "ÐºÐ¸Ð¹": 5841,
      "nu": 5842,
      "aled": 5843,
      "ceed": 5844,
      "ĠGeorge": 5845,
      "HE": 5846,
      "ê²Į": 5847,
      "yth": 5848,
      "ocation": 5849,
      "'d": 5850,
      "æķĻ": 5851,
      "Ġbab": 5852,
      "ĠTur": 5853,
      "à¤": 5854,
      "å¼ı": 5855,
      "PE": 5856,
      "ying": 5857,
      "Ġcontroll": 5858,
      "ker": 5859,
      "eq": 5860,
      "_T": 5861,
      "Ġanything": 5862,
      "Ġvom": 5863,
      "Ġhyp": 5864,
      "ĠBay": 5865,
      "bi": 5866,
      "Ġsecurity": 5867,
      "IL": 5868,
      "aba": 5869,
      "asion": 5870,
      "Ġnav": 5871,
      "ample": 5872,
      "beta": 5873,
      "rig": 5874,
      "ech": 5875,
      "Ġbox": 5876,
      "Ġadopt": 5877,
      "ĠØŃ": 5878,
      "Ġclinical": 5879,
      "Ġdei": 5880,
      "ĠAustralia": 5881,
      "type": 5882,
      "Ġnegative": 5883,
      "ĠAlex": 5884,
      "change": 5885,
      "Ġesp": 5886,
      "Ġrapid": 5887,
      "iments": 5888,
      "Ġple": 5889,
      "from": 5890,
      "gency": 5891,
      "Ġdepart": 5892,
      "Ġwoman": 5893,
      "ëŁ": 5894,
      "oul": 5895,
      "Ġdeveloping": 5896,
      "gs": 5897,
      "ums": 5898,
      "å¥½": 5899,
      "Ġenjoy": 5900,
      "'ve": 5901,
      "more": 5902,
      "ulate": 5903,
      "ĠMany": 5904,
      "ĠÐ¿ÑĢÐµÐ´": 5905,
      "ãĥ£": 5906,
      "Ġza": 5907,
      "Ġbeginning": 5908,
      "Ġsel": 5909,
      "ÑĥÑģ": 5910,
      "data": 5911,
      "Ġtod": 5912,
      "Ġfunctions": 5913,
      "åĲİ": 5914,
      "Ġadm": 5915,
      "Ġkann": 5916,
      "Ġseems": 5917,
      "\\in": 5918,
      "Ġwid": 5919,
      "Ġmental": 5920,
      "illing": 5921,
      "user": 5922,
      "ĠTV": 5923,
      "center": 5924,
      "imo": 5925,
      "ioni": 5926,
      "Ð´Ðµ": 5927,
      "ĠAfrican": 5928,
      "Ġfore": 5929,
      "ç³": 5930,
      "ëĤĺ": 5931,
      "``": 5932,
      "Figure": 5933,
      "Error": 5934,
      "Ġindex": 5935,
      "ÑİÑĤ": 5936,
      "Ġtom": 5937,
      "ãĤ±": 5938,
      "Ġbroad": 5939,
      "itle": 5940,
      "ÑĢÐ¾Ð´": 5941,
      "Ġpun": 5942,
      "chi": 5943,
      "Ãµ": 5944,
      "stein": 5945,
      "Ġperfect": 5946,
      "Ġmemory": 5947,
      "arc": 5948,
      "Ġcareer": 5949,
      "Ġkids": 5950,
      "born": 5951,
      "Ġfamilies": 5952,
      "Ġplaces": 5953,
      "ĠDu": 5954,
      "Ġlic": 5955,
      "abetes": 5956,
      "ĠØ³": 5957,
      "anto": 5958,
      "util": 5959,
      "Ġfeed": 5960,
      "atform": 5961,
      "ĠAlthough": 5962,
      "Ġscale": 5963,
      "Ġsv": 5964,
      "Ġzw": 5965,
      "Ġsafe": 5966,
      "06": 5967,
      "ãĤ¤ãĥ³": 5968,
      "Ġbrought": 5969,
      "Ġinfection": 5970,
      "Ġthous": 5971,
      "Ġfort": 5972,
      "yond": 5973,
      "Ġeye": 5974,
      "west": 5975,
      "ĠÐ§": 5976,
      "Set": 5977,
      "ampions": 5978,
      "ĠSociety": 5979,
      "Ġrob": 5980,
      "Ġnorm": 5981,
      "Ġgeh": 5982,
      "Ent": 5983,
      "']": 5984,
      "Ġtools": 5985,
      "'in": 5986,
      "ez": 5987,
      "ĠOff": 5988,
      "Ð¸Ð·": 5989,
      "enge": 5990,
      "ails": 5991,
      "Ġrates": 5992,
      "ĠForm": 5993,
      "uns": 5994,
      "ĠAssociation": 5995,
      "ultural": 5996,
      "Ġassum": 5997,
      "æĮģ": 5998,
      "ãĥŁ": 5999,
      "wood": 6000,
      "Ġwrote": 6001,
      "ä¿¡": 6002,
      "ĠOur": 6003,
      "120": 6004,
      "Ġinfluence": 6005,
      "plication": 6006,
      "Ã¤ll": 6007,
      "Ġimag": 6008,
      "ä¹Ł": 6009,
      "èĪ": 6010,
      "wise": 6011,
      "ĠMil": 6012,
      "ç®¡": 6013,
      "Form": 6014,
      "Ġgave": 6015,
      "script": 6016,
      "ought": 6017,
      "ÅĤa": 6018,
      "gin": 6019,
      "Ġvert": 6020,
      "ĠHistory": 6021,
      "ĠOf": 6022,
      "Ġbasis": 6023,
      "Ġinstr": 6024,
      "Ġdry": 6025,
      "Ġdouble": 6026,
      "ĠNow": 6027,
      "Ø§Ø¨": 6028,
      "olit": 6029,
      "Ġones": 6030,
      "Ġdegree": 6031,
      "ogue": 6032,
      "Ġ\\\\Ċ": 6033,
      "Ġtim": 6034,
      "ĠBre": 6035,
      "Ġcompl": 6036,
      "abase": 6037,
      "ef": 6038,
      "NS": 6039,
      "Ġmale": 6040,
      "éł": 6041,
      "åĮº": 6042,
      "Ġdigital": 6043,
      "åĭķ": 6044,
      "atives": 6045,
      "Ġcommercial": 6046,
      "Ġbran": 6047,
      "mo": 6048,
      "Ġtempor": 6049,
      "istas": 6050,
      "udd": 6051,
      "orial": 6052,
      "eps": 6053,
      "Ġcast": 6054,
      "Ġpou": 6055,
      "can": 6056,
      "sigma": 6057,
      "Ø±ÙĬ": 6058,
      "Ġuseful": 6059,
      "issance": 6060,
      "Ġmonitor": 6061,
      "Ġult": 6062,
      "ĠëĮĢ": 6063,
      "aper": 6064,
      "related": 6065,
      "ĠHere": 6066,
      "Ġok": 6067,
      "Ġjun": 6068,
      "Text": 6069,
      "Ġeverything": 6070,
      "ĠIII": 6071,
      "Ġsignificantly": 6072,
      "range": 6073,
      "known": 6074,
      "Ø§Ø¯": 6075,
      "æº": 6076,
      "ĠUSA": 6077,
      "ws": 6078,
      "Ġpero": 6079,
      "ìłķ": 6080,
      "ffect": 6081,
      "179": 6082,
      "Ġlargest": 6083,
      "Ġdirection": 6084,
      "Ġspeed": 6085,
      "Ġaussi": 6086,
      "rea": 6087,
      "ĠpÅĻ": 6088,
      "_id": 6089,
      "rÃ©": 6090,
      "board": 6091,
      "Ġdistance": 6092,
      "test": 6093,
      "amento": 6094,
      "Time": 6095,
      "ĠSen": 6096,
      "Ġdeal": 6097,
      "Ġscientists": 6098,
      "gu": 6099,
      "ĠLaw": 6100,
      "Ġgives": 6101,
      "ĠRobert": 6102,
      "ëĮĢ": 6103,
      "index": 6104,
      "Ġhan": 6105,
      "ĠFin": 6106,
      "\",Ċ": 6107,
      "å¼Ģ": 6108,
      ".set": 6109,
      "piel": 6110,
      "Ġvalid": 6111,
      "ĠChild": 6112,
      "Ġ(\\": 6113,
      "Ġdiseases": 6114,
      "Ġci": 6115,
      "rogen": 6116,
      "ÑĪÐµ": 6117,
      "Ġworked": 6118,
      "Ġrespond": 6119,
      "Ġcommunities": 6120,
      "rup": 6121,
      "ĠBen": 6122,
      "ĠSub": 6123,
      "Ġdevice": 6124,
      "After": 6125,
      "Ġnou": 6126,
      "arlier": 6127,
      "asse": 6128,
      "Ġtests": 6129,
      "Ġsymbol": 6130,
      "Ġsyn": 6131,
      "Ġgene": 6132,
      "Ġnote": 6133,
      "ĠLet": 6134,
      "Ġtum": 6135,
      "produ": 6136,
      "');Ċ": 6137,
      "Ġìľ": 6138,
      "inner": 6139,
      "hand": 6140,
      ".P": 6141,
      "Ġsample": 6142,
      "ĠDel": 6143,
      "sum": 6144,
      "clusion": 6145,
      "Ġlui": 6146,
      "ÑĸÑı": 6147,
      "Ġdoctor": 6148,
      "ologies": 6149,
      "ĠMary": 6150,
      "å®ŀ": 6151,
      "itable": 6152,
      "Ġcurrently": 6153,
      "ĠProgram": 6154,
      "ä½į": 6155,
      "ÑĥÑĩ": 6156,
      "Ġgest": 6157,
      "ĠList": 6158,
      "Ġoutput": 6159,
      "Ġseek": 6160,
      "Ġpick": 6161,
      "Ġhous": 6162,
      "ĠBook": 6163,
      "Ãµes": 6164,
      "Ġsac": 6165,
      "ĠGreat": 6166,
      "akt": 6167,
      "çĻº": 6168,
      "beit": 6169,
      "Ġroad": 6170,
      "ĠtambiÃ©n": 6171,
      "Ġpurch": 6172,
      "Equ": 6173,
      "Ġpurpose": 6174,
      "Ġoccup": 6175,
      "gal": 6176,
      "ĠÐºÐ¾ÑĤÐ¾ÑĢ": 6177,
      "ĠÐ±Ñĥ": 6178,
      "Ġhij": 6179,
      "\")": 6180,
      "orith": 6181,
      "^{-": 6182,
      "Ġconfig": 6183,
      "cean": 6184,
      "è®¾": 6185,
      "Ġ...": 6186,
      "-up": 6187,
      "ĠUnion": 6188,
      "Ġtool": 6189,
      "icans": 6190,
      "Ġliber": 6191,
      "Ġforces": 6192,
      "CR": 6193,
      "âĢĻve": 6194,
      "ëĲ": 6195,
      "ĠLeague": 6196,
      "amos": 6197,
      "neh": 6198,
      "FF": 6199,
      "ĠHel": 6200,
      "Ġgold": 6201,
      "-cent": 6202,
      "ĠÐºÐ°": 6203,
      "Ġdead": 6204,
      "Ġconnect": 6205,
      "Ġcold": 6206,
      "Ġneigh": 6207,
      "Ġfriend": 6208,
      "ÑĻ": 6209,
      "idae": 6210,
      "ç«ĭ": 6211,
      "ride": 6212,
      "Ġmoved": 6213,
      "Ġcarry": 6214,
      "ĠQue": 6215,
      "ĠprÃ©s": 6216,
      "ĠÈĻi": 6217,
      "roph": 6218,
      "Ġtrees": 6219,
      "íĺ": 6220,
      "Ġgran": 6221,
      "lick": 6222,
      "}{\\": 6223,
      "ĠÐ»Ð¸": 6224,
      "Ġvent": 6225,
      "Ġassist": 6226,
      "Ġremains": 6227,
      "ĠUK": 6228,
      "Ġvisual": 6229,
      "Ġapproxim": 6230,
      "eller": 6231,
      "Ġmiddle": 6232,
      ".L": 6233,
      "ĠChinese": 6234,
      "han": 6235,
      "orpor": 6236,
      "Ġtherapy": 6237,
      "ĠThomas": 6238,
      "Ġcro": 6239,
      "umer": 6240,
      "æŀľ": 6241,
      "mi": 6242,
      "Ġcert": 6243,
      "ĠJose": 6244,
      "Ã§a": 6245,
      "Ġextrem": 6246,
      "Ġbul": 6247,
      "ighe": 6248,
      "plies": 6249,
      "rome": 6250,
      "ì¹": 6251,
      "ciÃ³": 6252,
      "odies": 6253,
      "oire": 6254,
      "Ġoffice": 6255,
      "Ġfoods": 6256,
      "Ġë¶": 6257,
      "cio": 6258,
      "cast": 6259,
      "bra": 6260,
      "ako": 6261,
      "Ð±Ð¸": 6262,
      "Ed": 6263,
      "Ġarchitect": 6264,
      "æį": 6265,
      "Ġallowed": 6266,
      "amen": 6267,
      "Ð¤": 6268,
      "Ġsud": 6269,
      "Ġpresence": 6270,
      "Ġteachers": 6271,
      "ĠBas": 6272,
      "çŁ¥": 6273,
      "ä¹ĭ": 6274,
      "ĠWind": 6275,
      "_P": 6276,
      "Ø§Ø¡": 6277,
      "osc": 6278,
      "(x": 6279,
      "Ġinsp": 6280,
      "Ġleave": 6281,
      "Ġprotection": 6282,
      "Ġhundred": 6283,
      "Ġround": 6284,
      "-re": 6285,
      "iti": 6286,
      "anda": 6287,
      "Ġlegal": 6288,
      "éĥ½": 6289,
      "Ġeat": 6290,
      "Ġgew": 6291,
      "Ġtechniques": 6292,
      "Ġexcept": 6293,
      "Ġtransform": 6294,
      "ustr": 6295,
      "ĠFlor": 6296,
      "version": 6297,
      "Ġscientific": 6298,
      "Ġhac": 6299,
      "prÃ¨s": 6300,
      "Ġidentified": 6301,
      "ĠIsrael": 6302,
      "å°±": 6303,
      "aden": 6304,
      "Ġcontinued": 6305,
      "Ġoverall": 6306,
      "Ð¾ÑĢÐ°": 6307,
      "Ġjournal": 6308,
      "ellig": 6309,
      "æĬĢ": 6310,
      "Ġfit": 6311,
      "ĠMat": 6312,
      "Ġserved": 6313,
      "Ġswe": 6314,
      "ĠST": 6315,
      "'a": 6316,
      "Ġnearly": 6317,
      "-N": 6318,
      "Ġëª": 6319,
      "enty": 6320,
      "ãĥ¼ãĥī": 6321,
      "Ġagric": 6322,
      "éģĵ": 6323,
      "Ġdifferences": 6324,
      "orf": 6325,
      "Ġcontract": 6326,
      "ë©´": 6327,
      "Ġphil": 6328,
      "ãĥķãĤ": 6329,
      "Ġsav": 6330,
      "ÐĽ": 6331,
      "Ġcir": 6332,
      "Ġbecomes": 6333,
      "Ġrequires": 6334,
      "ëħ": 6335,
      "word": 6336,
      "Ã¯": 6337,
      "ĠSci": 6338,
      "Ġrunning": 6339,
      "aign": 6340,
      "mat": 6341,
      "Ġprincipal": 6342,
      "Ġsummer": 6343,
      "Ð²ÐµÑĢ": 6344,
      "Ġtrying": 6345,
      "Ġrecover": 6346,
      "Ġremember": 6347,
      "____": 6348,
      "ç¨ĭ": 6349,
      "ëį": 6350,
      "https": 6351,
      "uan": 6352,
      "Ġconflic": 6353,
      "Ġnombre": 6354,
      "Ð¾ÑĢÐ¾Ð´": 6355,
      "ĠÐ¾Ð¿": 6356,
      "yz": 6357,
      "Ġselect": 6358,
      ".)Ċ": 6359,
      "iser": 6360,
      "ĠNat": 6361,
      "Ġprefer": 6362,
      "inen": 6363,
      "å¤©": 6364,
      "ĠÙĩ": 6365,
      "Ġreduced": 6366,
      "-W": 6367,
      "kre": 6368,
      "Am": 6369,
      "alla": 6370,
      "Ġrelease": 6371,
      "Ġgar": 6372,
      "Ġcool": 6373,
      "acht": 6374,
      "Ã¼nd": 6375,
      "çĿĢ": 6376,
      "ĠÐ²Ð¾": 6377,
      "Ġcultural": 6378,
      "ÑģÐºÐ¸Ñħ": 6379,
      "\":": 6380,
      "Ġphase": 6381,
      "Ġrot": 6382,
      "rd": 6383,
      "Ġconv": 6384,
      "Ġexercise": 6385,
      "ÐµÑĤÑģÑı": 6386,
      "iele": 6387,
      "Ġradio": 6388,
      "ãģĵãģ®": 6389,
      "ypes": 6390,
      "Ġpresented": 6391,
      "rief": 6392,
      "_f": 6393,
      "Ġprocesses": 6394,
      "uries": 6395,
      "Ġlett": 6396,
      "state": 6397,
      "ĠGermany": 6398,
      "ML": 6399,
      "ç¾İ": 6400,
      "ĠClass": 6401,
      "âĪĴ": 6402,
      "iga": 6403,
      "Ġhope": 6404,
      "####": 6405,
      "ĠPublic": 6406,
      "èĭ": 6407,
      "Ġorigin": 6408,
      "ãĥĵ": 6409,
      "iance": 6410,
      "ĠØ§ÙĦØ¹": 6411,
      "Ġball": 6412,
      "ĠSuper": 6413,
      "Ġobtained": 6414,
      "Ġsurround": 6415,
      "Ġthinking": 6416,
      "reme": 6417,
      "ĠØ¹ÙĦÙī": 6418,
      "px": 6419,
      "Ġhier": 6420,
      "iente": 6421,
      "ĠRel": 6422,
      "Ġapplications": 6423,
      "Ġbackground": 6424,
      "ĠGal": 6425,
      "ĠJack": 6426,
      "hi": 6427,
      "ÐµÑħ": 6428,
      "Ð°ÑĢÐ°": 6429,
      "ç·": 6430,
      "Ġcontra": 6431,
      "cular": 6432,
      "Ġhumans": 6433,
      "Ġworkers": 6434,
      "æ§": 6435,
      "Ġrare": 6436,
      "ìĽĲ": 6437,
      "Ġcommunication": 6438,
      "ĠOl": 6439,
      "ĠGreen": 6440,
      "ĠMount": 6441,
      "idel": 6442,
      "Ġapplied": 6443,
      "ĠHand": 6444,
      "gener": 6445,
      "Ġarray": 6446,
      "orders": 6447,
      "ĠInternet": 6448,
      "ãģ¾ãģĽ": 6449,
      "ĠSince": 6450,
      "ĠMiss": 6451,
      "ĠPost": 6452,
      "ierte": 6453,
      "Ġalone": 6454,
      "gamma": 6455,
      "Ġstaff": 6456,
      "mathrm": 6457,
      "\";Ċ": 6458,
      "ĠRepublic": 6459,
      "Ð½Ð¾Ð¼": 6460,
      "Ġsatisf": 6461,
      "Ġcer": 6462,
      "Ġchurch": 6463,
      "ç±": 6464,
      "Ġcandid": 6465,
      "âĢĻll": 6466,
      "izer": 6467,
      "Ġcry": 6468,
      "Ġesta": 6469,
      "åħ¶": 6470,
      "Ġsua": 6471,
      "Ġcoming": 6472,
      "æ¯Ķ": 6473,
      ".b": 6474,
      "Ġtesting": 6475,
      "Ġleaves": 6476,
      "Of": 6477,
      "lant": 6478,
      "ao": 6479,
      "+\\": 6480,
      "nis": 6481,
      "Ġrecently": 6482,
      "Ġreceive": 6483,
      "Ġoppos": 6484,
      "Ġalla": 6485,
      "oration": 6486,
      "Ġìĥ": 6487,
      "igt": 6488,
      "Ġcorn": 6489,
      "See": 6490,
      "rupt": 6491,
      "Ġolder": 6492,
      "Ġappropriate": 6493,
      "çĦ¡": 6494,
      "Ð¼Ñĥ": 6495,
      "Ġhttps": 6496,
      "ĠGold": 6497,
      "Ġparty": 6498,
      "oli": 6499,
      "æĤ": 6500,
      "ìłģ": 6501,
      "ĠGet": 6502,
      "ĠFamil": 6503,
      "reh": 6504,
      "\")Ċ": 6505,
      "Ġobjects": 6506,
      "åŀ": 6507,
      "ĠDNA": 6508,
      "è¨Ģ": 6509,
      "è§£": 6510,
      "Ġmulti": 6511,
      "osen": 6512,
      "empor": 6513,
      "ersion": 6514,
      "State": 6515,
      "ÃŁe": 6516,
      "Ġsupply": 6517,
      "ç§ĳ": 6518,
      "agon": 6519,
      "Ġsuccessful": 6520,
      "ĠÃª": 6521,
      "Ã¶g": 6522,
      "Ġcin": 6523,
      "Ġcosts": 6524,
      "using": 6525,
      "Ġrepl": 6526,
      "Ð¸Ñħ": 6527,
      "çĶµ": 6528,
      "ãĥĬ": 6529,
      "æģ": 6530,
      "OL": 6531,
      "-term": 6532,
      "Ġsmaller": 6533,
      "ãģļ": 6534,
      "aciÃ³": 6535,
      "Ġadvant": 6536,
      "like": 6537,
      "Ġusers": 6538,
      "wide": 6539,
      "Ġforward": 6540,
      "esse": 6541,
      "Ġblue": 6542,
      "Ð½ÑĭÐ¼": 6543,
      "Ġearlier": 6544,
      "comp": 6545,
      "jen": 6546,
      "gery": 6547,
      "ĠOther": 6548,
      "Ġwanted": 6549,
      "Ġcopy": 6550,
      "ĠIr": 6551,
      "ĠBerlin": 6552,
      "Ġindependent": 6553,
      "PA": 6554,
      "Ġchoose": 6555,
      "íĬ": 6556,
      "52": 6557,
      "eles": 6558,
      "ĠRem": 6559,
      "Ġannoun": 6560,
      "ĠPo": 6561,
      "Ġíķ": 6562,
      "ĠÐ±ÑĭÐ»": 6563,
      "ãģ§ãĤĤ": 6564,
      "Ġplaced": 6565,
      "ĠÑī": 6566,
      "Ġrepe": 6567,
      "Ġtoward": 6568,
      "rane": 6569,
      "ahn": 6570,
      "Ð»Ñİ": 6571,
      "Ġmachine": 6572,
      "ĠDuring": 6573,
      "inding": 6574,
      "Ġspeak": 6575,
      "rot": 6576,
      "ĠÑģÐ²Ð¾": 6577,
      "Ġdetails": 6578,
      "Ġrout": 6579,
      "Ġhaben": 6580,
      "Ġcomment": 6581,
      "Ġimportance": 6582,
      "Ġburn": 6583,
      "Ġges": 6584,
      "ÑģÑĤÐ²Ð°": 6585,
      "-le": 6586,
      "si": 6587,
      "ĠTex": 6588,
      "wick": 6589,
      "$Ċ": 6590,
      "Ġprojects": 6591,
      "Ġchanged": 6592,
      "DF": 6593,
      "pert": 6594,
      "Ġcollabor": 6595,
      "Ġfer": 6596,
      "ÐºÐ¾Ð½": 6597,
      "DA": 6598,
      "Ãºn": 6599,
      "ÙĦÙĬ": 6600,
      "{t": 6601,
      "down": 6602,
      "ĠCast": 6603,
      "Ð³Ñĥ": 6604,
      "ë²": 6605,
      "ĠPan": 6606,
      "]{": 6607,
      "Ġgeb": 6608,
      "Ġsolar": 6609,
      "itÃł": 6610,
      "Path": 6611,
      "å¸¸": 6612,
      "æŃ£": 6613,
      "Ð°Ñħ": 6614,
      "{align": 6615,
      "Ġprepar": 6616,
      "itud": 6617,
      "Ġuit": 6618,
      "aar": 6619,
      "ĠCur": 6620,
      "water": 6621,
      "ev": 6622,
      "ears": 6623,
      "Ġvel": 6624,
      "Ġpolic": 6625,
      "ìĻ": 6626,
      "Ġshape": 6627,
      "Ġlib": 6628,
      "estic": 6629,
      "ĠLin": 6630,
      "Ġê¸°": 6631,
      "ãĤ¹ãĥĪ": 6632,
      "Ġformed": 6633,
      "Ġcompletely": 6634,
      "Ġspirit": 6635,
      "Ð»ÐµÐº": 6636,
      "ipe": 6637,
      "\\label": 6638,
      "rest": 6639,
      "Ġexhib": 6640,
      "Ð¾Ñı": 6641,
      "èĢĥ": 6642,
      "51": 6643,
      "rian": 6644,
      "Ġrelev": 6645,
      "Ġpossib": 6646,
      "olar": 6647,
      "Ġêµ": 6648,
      "Config": 6649,
      "èĲ": 6650,
      "Ġroot": 6651,
      "ĠBet": 6652,
      "Info": 6653,
      "Ġsecret": 6654,
      "iful": 6655,
      "Ġenter": 6656,
      "CE": 6657,
      "ÐµÑģÑĤÐ²": 6658,
      "Ġnovel": 6659,
      "ĠSil": 6660,
      "Ġchoice": 6661,
      "pective": 6662,
      "lia": 6663,
      "ĠKl": 6664,
      "éĢģ": 6665,
      "Ġbeyond": 6666,
      "irt": 6667,
      "Ġtrade": 6668,
      "pack": 6669,
      "Ġorganization": 6670,
      "åŁº": 6671,
      "Ġfemale": 6672,
      "ĠIN": 6673,
      "Ġwatch": 6674,
      "ìĨ": 6675,
      "SE": 6676,
      "uster": 6677,
      "ĠÐ¨": 6678,
      "Ġnous": 6679,
      "é¦": 6680,
      "çĸ": 6681,
      "ĠTod": 6682,
      ".B": 6683,
      "å¹³": 6684,
      "....": 6685,
      "Ġessay": 6686,
      "cause": 6687,
      "53": 6688,
      "Ġwaste": 6689,
      "rho": 6690,
      "ivate": 6691,
      "¹Ħ": 6692,
      "Ġwel": 6693,
      "Ge": 6694,
      "Ġdevices": 6695,
      "ittee": 6696,
      "ĠCharles": 6697,
      "ĠFrancis": 6698,
      "ÐĹ": 6699,
      "åĿ": 6700,
      "Ġrich": 6701,
      "æł¼": 6702,
      "ĠDevelop": 6703,
      "estival": 6704,
      "OM": 6705,
      "ÐºÐ¾Ð»": 6706,
      "ĠPeter": 6707,
      "Ġmunicip": 6708,
      "Ġhospital": 6709,
      "ĠÐ¼Ñĥ": 6710,
      "Pe": 6711,
      "Ġefforts": 6712,
      "AA": 6713,
      "ĠaÃ±os": 6714,
      "ĠÑģÐ¾": 6715,
      "Inter": 6716,
      "void": 6717,
      "keit": 6718,
      "ĠLouis": 6719,
      "ÑĢÑĭ": 6720,
      "ä¸ī": 6721,
      "ĠSpe": 6722,
      "ĠOut": 6723,
      "æĽ´": 6724,
      "Ġrandom": 6725,
      "ichte": 6726,
      "gent": 6727,
      "Ab": 6728,
      "ÑĢÐ°Ð·": 6729,
      "onia": 6730,
      "ĠUnter": 6731,
      "ĠJean": 6732,
      "ĠÙĤ": 6733,
      "ĠCamp": 6734,
      "}.Ċ": 6735,
      "gi": 6736,
      "ãģ¾ãģĽãĤĵ": 6737,
      "Ġadults": 6738,
      "Ġteaching": 6739,
      "Ġbehavi": 6740,
      "ĠMuseum": 6741,
      "Ġconsequ": 6742,
      "ĠMer": 6743,
      "ÐŁÑĢÐ¸": 6744,
      "ĠAccording": 6745,
      "ÙĪØ±": 6746,
      "ĠJesus": 6747,
      "Ġelle": 6748,
      "Ġeveryone": 6749,
      "å®Ł": 6750,
      "Ġantib": 6751,
      "Ġresponsible": 6752,
      ".R": 6753,
      "Ġmiles": 6754,
      "ĠKar": 6755,
      "ĠOrgan": 6756,
      "ĠSocial": 6757,
      "Ġcompr": 6758,
      "160": 6759,
      "rak": 6760,
      "ĠÙĨ": 6761,
      "Ġdanger": 6762,
      "Ġprice": 6763,
      "ohol": 6764,
      "ĠAcadem": 6765,
      "Ġegg": 6766,
      "Ġhol": 6767,
      "åıĹ": 6768,
      "izz": 6769,
      "ãĤ·ãĥ§": 6770,
      "OC": 6771,
      "ĠKon": 6772,
      "åĬ¡": 6773,
      "æ¬¡": 6774,
      "ĠService": 6775,
      "enta": 6776,
      "Ð»Ð°Ð²": 6777,
      "ĠCouncil": 6778,
      "åĸ": 6779,
      "å¯¾": 6780,
      "Ġdynam": 6781,
      "Ð°ÑĤÑĮ": 6782,
      "cciÃ³n": 6783,
      "Ġê°Ģ": 6784,
      "Ã«": 6785,
      "plications": 6786,
      "Ġabsol": 6787,
      "Ġconvert": 6788,
      "Ġ:Ċ": 6789,
      "Ġmas": 6790,
      "ĠJun": 6791,
      "cs": 6792,
      "eler": 6793,
      "ming": 6794,
      "ĠÐĿÐ°": 6795,
      "sta": 6796,
      "sect": 6797,
      "ÑĭÐµ": 6798,
      "uation": 6799,
      "struct": 6800,
      "Ġice": 6801,
      "Ġitems": 6802,
      "ĠLeg": 6803,
      "Ġcreating": 6804,
      "Ġtypically": 6805,
      "rip": 6806,
      "uses": 6807,
      "Ġmission": 6808,
      "prise": 6809,
      "Ġyourself": 6810,
      "Ġneuro": 6811,
      "ributed": 6812,
      "Ġvillage": 6813,
      "adores": 6814,
      "ç²": 6815,
      "ĠMichael": 6816,
      "Ġwurden": 6817,
      "Ġstim": 6818,
      "etz": 6819,
      "mas": 6820,
      "Ġcolumn": 6821,
      "ĠMass": 6822,
      "Ġturned": 6823,
      "Art": 6824,
      "Ġcourt": 6825,
      "ìķĦ": 6826,
      "ĠCentral": 6827,
      "ĠHall": 6828,
      "Ġrule": 6829,
      "space": 6830,
      "ĠGroup": 6831,
      "Ġelim": 6832,
      "Ġstore": 6833,
      "Ġdefault": 6834,
      "178": 6835,
      "è°": 6836,
      "Ġels": 6837,
      "Ã©ric": 6838,
      "ajo": 6839,
      "Ġfigure": 6840,
      "-V": 6841,
      "orning": 6842,
      "ÑĭÑħ": 6843,
      "aters": 6844,
      "ĠSy": 6845,
      "Der": 6846,
      "'E": 6847,
      "well": 6848,
      "ĠÑĢÐ¾ÐºÑĥ": 6849,
      "organ": 6850,
      "Ġking": 6851,
      "Ġfollows": 6852,
      "Ġê²ĥ": 6853,
      "ighest": 6854,
      "ĠâĢ¦": 6855,
      "Ġpil": 6856,
      "undo": 6857,
      "Les": 6858,
      "Ġrules": 6859,
      "eness": 6860,
      "é£Ł": 6861,
      "ĠKir": 6862,
      "Ġzijn": 6863,
      "Ġcomponents": 6864,
      "ifier": 6865,
      "Request": 6866,
      "ìĿ¼": 6867,
      "ÑĳÐ½": 6868,
      "ĠIsland": 6869,
      "Event": 6870,
      "ÑģÑĤÐ°": 6871,
      "theta": 6872,
      "/d": 6873,
      "rugg": 6874,
      "Ġproviding": 6875,
      "CL": 6876,
      "iego": 6877,
      "ĠAN": 6878,
      "ÃŁen": 6879,
      "Ġsevere": 6880,
      "èĢĮ": 6881,
      "^\\": 6882,
      "Ġdal": 6883,
      "æ®": 6884,
      "Ġfoi": 6885,
      "Ġfields": 6886,
      "ĠWestern": 6887,
      "CD": 6888,
      "Ġwerd": 6889,
      "Ġgoes": 6890,
      "Ġreference": 6891,
      "lik": 6892,
      "Ġancient": 6893,
      "Ã¼t": 6894,
      "eria": 6895,
      "ĠEducation": 6896,
      "nam": 6897,
      "çı": 6898,
      "Ġreflect": 6899,
      "Ġformation": 6900,
      "MP": 6901,
      "delta": 6902,
      "Ġisn": 6903,
      "Ġfair": 6904,
      "Ġboard": 6905,
      "ä»¶": 6906,
      "Ġfully": 6907,
      "ĠÑĩÑĤÐ¾": 6908,
      "Ġpassed": 6909,
      "Ġjoint": 6910,
      "Ġrecommend": 6911,
      "ÑĭÐ¹": 6912,
      "åħĥ": 6913,
      "ĠWhite": 6914,
      "Map": 6915,
      "ĠTom": 6916,
      "Ã¨res": 6917,
      "rÃ¤": 6918,
      "leich": 6919,
      "Ã³d": 6920,
      "idades": 6921,
      "Ġfilms": 6922,
      "ĠNord": 6923,
      "Ġgain": 6924,
      "unc": 6925,
      "ĠZeit": 6926,
      "ĠJo": 6927,
      "cious": 6928,
      "body": 6929,
      "?\"Ċ": 6930,
      "/m": 6931,
      "Ġcoord": 6932,
      "ĠBur": 6933,
      "Ġparent": 6934,
      "Ġenh": 6935,
      "Ġopportunity": 6936,
      "ĠOver": 6937,
      "grad": 6938,
      "ÑĢÐµÐ´": 6939,
      "Ġsteps": 6940,
      "ĠEven": 6941,
      "ç³»": 6942,
      "Ġreturned": 6943,
      "ĠUp": 6944,
      "Ġepis": 6945,
      "Ġbud": 6946,
      "Ġfresh": 6947,
      "Ġequal": 6948,
      "åħ³": 6949,
      "çĬ": 6950,
      "Ġleur": 6951,
      "ĠestÃ¡": 6952,
      "Ġcos": 6953,
      "Ġlaws": 6954,
      "Ġfederal": 6955,
      "Ġcoast": 6956,
      "Ġvotre": 6957,
      "edd": 6958,
      "Ġvolume": 6959,
      "Ġni": 6960,
      "ĠÑģÑĥ": 6961,
      "ãģĹãĤ": 6962,
      "That": 6963,
      "ÐµÐ¿": 6964,
      "ĠFound": 6965,
      "Fig": 6966,
      "Ġauthors": 6967,
      "quad": 6968,
      "Ġexpand": 6969,
      "Ġfine": 6970,
      "iform": 6971,
      "Ġreligious": 6972,
      "Ġtip": 6973,
      "Ġreasons": 6974,
      "æ¨": 6975,
      "Ġinternal": 6976,
      "Trans": 6977,
      "Field": 6978,
      "Ġtal": 6979,
      "Ġtor": 6980,
      "Ġelectr": 6981,
      "big": 6982,
      "Ġreb": 6983,
      "Ġmeasures": 6984,
      "ĠMedic": 6985,
      "Ġexplain": 6986,
      "ëª": 6987,
      "Ð½Ð¸Ð¼": 6988,
      "ĠrÃ©s": 6989,
      "Qu": 6990,
      "ersch": 6991,
      "Ġbank": 6992,
      "Ġequipment": 6993,
      "Ø§Ø¹": 6994,
      "nÃ©": 6995,
      "iker": 6996,
      "Ġwait": 6997,
      "sm": 6998,
      "acing": 6999,
      "Ġliv": 7000,
      "Ġrespectively": 7001,
      "inally": 7002,
      "ë¶Ģ": 7003,
      "'il": 7004,
      "Ġcm": 7005,
      "Ġsustain": 7006,
      "Ġexamples": 7007,
      "Ġnue": 7008,
      "ÑĸÑģ": 7009,
      "arios": 7010,
      "íķĺëĬĶ": 7011,
      "esp": 7012,
      "OD": 7013,
      "Ġsamples": 7014,
      "hemat": 7015,
      "ĠÃ¡": 7016,
      "ĠnÃ©": 7017,
      "Ġregions": 7018,
      "TR": 7019,
      "Att": 7020,
      "zeit": 7021,
      "object": 7022,
      "Ġparticipants": 7023,
      "Ġsugar": 7024,
      "abled": 7025,
      "åı¸": 7026,
      "ĠÑģÐ¾ÑģÑĤ": 7027,
      "ayer": 7028,
      "ĠSpan": 7029,
      "escription": 7030,
      "Ð»Ð°Ð´": 7031,
      "Ġdivid": 7032,
      "54": 7033,
      "Ġcelebr": 7034,
      "éķ¿": 7035,
      "600": 7036,
      "uten": 7037,
      "åľº": 7038,
      "oca": 7039,
      "Ġped": 7040,
      "Ġdiss": 7041,
      "ĠThus": 7042,
      "config": 7043,
      "ä¼ģ": 7044,
      "å°Ĩ": 7045,
      "Ġcitiz": 7046,
      "riz": 7047,
      "Ġserve": 7048,
      "ĠEv": 7049,
      "Ġaffected": 7050,
      "ds": 7051,
      ")}": 7052,
      "Ġisol": 7053,
      "ĠMr": 7054,
      "umin": 7055,
      "èī²": 7056,
      "'en": 7057,
      "ĠGer": 7058,
      "ĠAlso": 7059,
      "Ġcharg": 7060,
      "Context": 7061,
      "èº": 7062,
      "Ġinteresting": 7063,
      "enses": 7064,
      "Ġeuro": 7065,
      "Ã³l": 7066,
      "56": 7067,
      "gel": 7068,
      "ĠData": 7069,
      "Ã¶l": 7070,
      "Ġben": 7071,
      "ĠSun": 7072,
      "ĠClub": 7073,
      "Service": 7074,
      "Ġdirector": 7075,
      "Ġfelt": 7076,
      "Ġseven": 7077,
      "Note": 7078,
      "These": 7079,
      "Ġactions": 7080,
      "Ġresource": 7081,
      "Ġhair": 7082,
      "Ġstructures": 7083,
      "å±±": 7084,
      "ĠRob": 7085,
      "ye": 7086,
      "Ð¾Ð³Ð¸": 7087,
      "Ġì§Ģ": 7088,
      "ìĬµ": 7089,
      "bur": 7090,
      "åħĪ": 7091,
      "Äģ": 7092,
      "ĠRom": 7093,
      "rences": 7094,
      "olean": 7095,
      "Ġpreviously": 7096,
      "åºĶ": 7097,
      "ĠmÃªme": 7098,
      "oren": 7099,
      "mosph": 7100,
      "ĠÙĦÙĦ": 7101,
      "Ġtissue": 7102,
      "Ġmajority": 7103,
      "Ġexisting": 7104,
      "heit": 7105,
      "ĠAtt": 7106,
      "ĠGeorg": 7107,
      "ĠFig": 7108,
      "Ġaqu": 7109,
      "adian": 7110,
      "iders": 7111,
      "iable": 7112,
      "Ġcapacity": 7113,
      "ĠÐ¸Ð½": 7114,
      "Ġcontrast": 7115,
      "Ġmetal": 7116,
      "éľ": 7117,
      "leq": 7118,
      "-pro": 7119,
      "endant": 7120,
      "ë§Į": 7121,
      "æ©": 7122,
      "force": 7123,
      "Ġacadem": 7124,
      "Reg": 7125,
      "Ġletter": 7126,
      "Ġfab": 7127,
      "eres": 7128,
      "Øº": 7129,
      "Ġeight": 7130,
      "Â«": 7131,
      "Ġgal": 7132,
      "Ð·Ñĭ": 7133,
      ".n": 7134,
      "Ġworth": 7135,
      "Ġoffers": 7136,
      "ãĥĿ": 7137,
      "Ġexposure": 7138,
      "Ġgod": 7139,
      "ĠÃ©ta": 7140,
      "å¾Į": 7141,
      "hrer": 7142,
      "ĠMicro": 7143,
      ".T": 7144,
      "sz": 7145,
      "(f": 7146,
      "ÑģÑĤÐ°Ð½": 7147,
      "ĠStreet": 7148,
      "ĠÐ´Ð°": 7149,
      "Ġgru": 7150,
      "aughter": 7151,
      "ÑģÐµ": 7152,
      "ĠÃªtre": 7153,
      "ãģķãĤĵ": 7154,
      "edom": 7155,
      "annt": 7156,
      "urance": 7157,
      "Ġhighest": 7158,
      "erman": 7159,
      "ÑģÐºÐ°Ñı": 7160,
      "ĠTw": 7161,
      "ilter": 7162,
      "Ð¸ÑĤÐµÐ»ÑĮ": 7163,
      "lections": 7164,
      "ĠÑĢÐ°Ð¹": 7165,
      "(self": 7166,
      "åĲĳ": 7167,
      "Ġmoving": 7168,
      "Ġscen": 7169,
      "-E": 7170,
      "cript": 7171,
      "Ġintroduced": 7172,
      "Hand": 7173,
      "ÃŃm": 7174,
      "Ġsetting": 7175,
      "Node": 7176,
      "ĠSee": 7177,
      "ĠCatal": 7178,
      "Ġwall": 7179,
      "-J": 7180,
      "oster": 7181,
      "Ġtreated": 7182,
      "ìĥģ": 7183,
      "èŃ": 7184,
      "plant": 7185,
      "Ġmess": 7186,
      "onic": 7187,
      "ĠÑĩÐ°": 7188,
      "ãĤĮãĤĭ": 7189,
      "Ġbenefit": 7190,
      "''": 7191,
      "Ġinnov": 7192,
      ".ap": 7193,
      "Ġgenes": 7194,
      "ļĮ": 7195,
      "ãĥĢ": 7196,
      "åºĹ": 7197,
      "ĠSing": 7198,
      "èµĦ": 7199,
      "ìłľ": 7200,
      "Ð»Ñĸ": 7201,
      "ÑĽ": 7202,
      "BS": 7203,
      "Ġappears": 7204,
      "Ġkil": 7205,
      "hab": 7206,
      "ĠDet": 7207,
      "Ġpeu": 7208,
      "tau": 7209,
      "ÑģÐ°": 7210,
      "ĠAmericans": 7211,
      "Â».": 7212,
      "177": 7213,
      "Ġign": 7214,
      "ibt": 7215,
      "Ġevolution": 7216,
      "ĠprÃ©": 7217,
      "éĽĨ": 7218,
      "ĠGi": 7219,
      "$-": 7220,
      "íĬ¸": 7221,
      "los": 7222,
      "Ġrestrict": 7223,
      "////////": 7224,
      "ãģĹãģĦ": 7225,
      "Ġteacher": 7226,
      "-century": 7227,
      "fÃ©": 7228,
      "Ġdestroy": 7229,
      "VID": 7230,
      "While": 7231,
      "ĠkÃ¶nnen": 7232,
      "åŀĭ": 7233,
      "iring": 7234,
      "Ġrace": 7235,
      "Ġslight": 7236,
      "ä»ĺ": 7237,
      "æ·": 7238,
      "++": 7239,
      "ãĤĬãģ¾ãģĻ": 7240,
      "Ġsolid": 7241,
      "ĠDeutsch": 7242,
      "ĠTour": 7243,
      "Ġsave": 7244,
      "Ġprec": 7245,
      "Ġfindings": 7246,
      "Ø§Ø¦": 7247,
      "Ġdesde": 7248,
      "Ġdre": 7249,
      "ãģ¨ãģĹãģ¦": 7250,
      "rees": 7251,
      "ĠUN": 7252,
      "Ġspl": 7253,
      "under": 7254,
      "Me": 7255,
      "æµ·": 7256,
      "ĠCas": 7257,
      "ãģŃ": 7258,
      "gypt": 7259,
      "ocks": 7260,
      "tex": 7261,
      "Ġdisp": 7262,
      "ĠrÃ©g": 7263,
      "800": 7264,
      "Ġmist": 7265,
      "ãģĹãģ¾ãģĻ": 7266,
      "Ġdiabetes": 7267,
      "ãģĵãģ¨ãģĮ": 7268,
      "Ð¸ÑĤÑĮ": 7269,
      "non": 7270,
      "oco": 7271,
      "Ġparameters": 7272,
      "Ġpregn": 7273,
      "_b": 7274,
      "Ġphen": 7275,
      "omic": 7276,
      "001": 7277,
      "ãĥ³ãĥĪ": 7278,
      "ĠMel": 7279,
      "Ġya": 7280,
      "Ġheight": 7281,
      "ĠÐ°ÑĢ": 7282,
      "Ġpiece": 7283,
      "Ġphilosoph": 7284,
      "Ġcharge": 7285,
      "ÑĺÐ°": 7286,
      "ologie": 7287,
      "ãģ¨æĢĿ": 7288,
      "Ġlooked": 7289,
      "arse": 7290,
      "ĠLord": 7291,
      "ĠRichard": 7292,
      "ä¸ĸ": 7293,
      "Ġselected": 7294,
      "Ġtradition": 7295,
      "\"></": 7296,
      "house": 7297,
      "ĠPhys": 7298,
      "ãĥį": 7299,
      "Ġdurante": 7300,
      "å¦Ĥ": 7301,
      "Ġapply": 7302,
      "ekt": 7303,
      "assert": 7304,
      "Ã¤ch": 7305,
      "Ġprotected": 7306,
      "ĠCommun": 7307,
      "Ġoccurs": 7308,
      "Ġpp": 7309,
      "ographic": 7310,
      "isters": 7311,
      "ĠPlan": 7312,
      "Ġincl": 7313,
      "ĠJapanese": 7314,
      "Ġbacteria": 7315,
      "ĠPeople": 7316,
      "Ġcarried": 7317,
      "Ġreserv": 7318,
      "summary": 7319,
      "ĠFilm": 7320,
      "Ġëĵ": 7321,
      "Ġ/>Ċ": 7322,
      "Ġclient": 7323,
      "ju": 7324,
      "åİŁ": 7325,
      "Ġremove": 7326,
      "Ð½Ð¾Ðµ": 7327,
      "åĽł": 7328,
      "Ã©rie": 7329,
      "Ġappar": 7330,
      "Ġoption": 7331,
      "ografia": 7332,
      "çĶ»": 7333,
      "ĠCompany": 7334,
      "Us": 7335,
      "Ġnie": 7336,
      "ĠStand": 7337,
      "Ùİ": 7338,
      "Ã½ch": 7339,
      "Ġlabel": 7340,
      "OP": 7341,
      "Ġmur": 7342,
      "Ġheavy": 7343,
      "Ġconnection": 7344,
      "orem": 7345,
      "ĠSmith": 7346,
      "Ġsignal": 7347,
      "ÑĥÐ»ÑĮ": 7348,
      "Ġcompleted": 7349,
      "Ġplans": 7350,
      "Ġgiving": 7351,
      "df": 7352,
      "ĠWater": 7353,
      "stances": 7354,
      "Ġconducted": 7355,
      "Ġupper": 7356,
      "Ġimmediately": 7357,
      "Ġpropos": 7358,
      "Ġrise": 7359,
      "ĠBest": 7360,
      "Ġjava": 7361,
      "(),": 7362,
      "Ġsolutions": 7363,
      "Ġca": 7364,
      "dis": 7365,
      "ician": 7366,
      "arts": 7367,
      "SP": 7368,
      "éŁ": 7369,
      "Ġwrong": 7370,
      "rio": 7371,
      "Act": 7372,
      "ÃŃas": 7373,
      "Ġdedic": 7374,
      "ampionship": 7375,
      "Ġdetermined": 7376,
      "ĠTexas": 7377,
      "Ġdrugs": 7378,
      "ĠGrand": 7379,
      "_F": 7380,
      "Å±": 7381,
      "ĠÐ¼Ð°": 7382,
      "Ġopin": 7383,
      "Ġproposed": 7384,
      "Ġpeut": 7385,
      "Ã¤h": 7386,
      "ĠSpiel": 7387,
      "Ġrelative": 7388,
      "Ġìĭľ": 7389,
      "Ġpull": 7390,
      "Ġëı": 7391,
      "Ġindu": 7392,
      "cup": 7393,
      "which": 7394,
      "250": 7395,
      "ĠTherefore": 7396,
      "çłĶ": 7397,
      "ìĦ±": 7398,
      "othes": 7399,
      "Ġchance": 7400,
      "Ġconcentr": 7401,
      "çĦ¶": 7402,
      "ulf": 7403,
      "ĠPet": 7404,
      "ìļ©": 7405,
      "ĠStr": 7406,
      "king": 7407,
      "Ġbuy": 7408,
      "ĠMars": 7409,
      "encies": 7410,
      "ãĤ§": 7411,
      "Ġsoll": 7412,
      "Ġsous": 7413,
      "Ġincreases": 7414,
      "-v": 7415,
      "Ġminor": 7416,
      "æ¡": 7417,
      "Ġpoly": 7418,
      "ĠCourt": 7419,
      "Ġweather": 7420,
      "Ġforest": 7421,
      "ç¶": 7422,
      "Up": 7423,
      "Ġmotor": 7424,
      "éĻ¢": 7425,
      "Ġoperation": 7426,
      "Ġvolt": 7427,
      "Ġstarting": 7428,
      "atre": 7429,
      "ographie": 7430,
      "Ġrelatively": 7431,
      "Ġperhaps": 7432,
      "MA": 7433,
      "Ġdiscovered": 7434,
      "Sch": 7435,
      "pected": 7436,
      "ĠAD": 7437,
      "utz": 7438,
      "Ġresistance": 7439,
      "ÃŃcul": 7440,
      "Ġinhib": 7441,
      "ially": 7442,
      "Ġreports": 7443,
      "Ã¼h": 7444,
      "ĠVict": 7445,
      "SD": 7446,
      "ĠCarol": 7447,
      "Ġsynt": 7448,
      "Ġwife": 7449,
      "Ġsupported": 7450,
      "Ġdistrict": 7451,
      "Ġtechnique": 7452,
      "abs": 7453,
      "ÑģÐºÐ¾": 7454,
      "ĠCre": 7455,
      "ä¸ĩ": 7456,
      "Ġformat": 7457,
      "Ġappoint": 7458,
      "Ġtrib": 7459,
      "ĠEsp": 7460,
      "Ġeventually": 7461,
      "Ġincorpor": 7462,
      "ensions": 7463,
      "ĠGes": 7464,
      "arten": 7465,
      "edy": 7466,
      "Ġcommonly": 7467,
      "åĨĨ": 7468,
      "ĠArmy": 7469,
      "Ġpractices": 7470,
      "icians": 7471,
      "ĠAP": 7472,
      "Ġpu": 7473,
      "owa": 7474,
      "ĠGra": 7475,
      "Ġkl": 7476,
      "Ġstories": 7477,
      "times": 7478,
      "Ġglass": 7479,
      "å°ĳ": 7480,
      "Ġcampaign": 7481,
      "Ġperman": 7482,
      "110": 7483,
      "ìļĶ": 7484,
      "III": 7485,
      "Ġwinter": 7486,
      "Ġdra": 7487,
      "Ġrang": 7488,
      "Ġdetect": 7489,
      "Notes": 7490,
      "ë³´": 7491,
      "Ġexecut": 7492,
      "Ġfuel": 7493,
      "emic": 7494,
      "ĠCath": 7495,
      "Index": 7496,
      "ĠìķĦ": 7497,
      "Ġeating": 7498,
      "ĉĉĉĉĉ": 7499,
      "*}Ċ": 7500,
      "Ġplatform": 7501,
      "Ġmouth": 7502,
      "Some": 7503,
      "ĠInc": 7504,
      "}(\\": 7505,
      "Ġsexual": 7506,
      "Ġriver": 7507,
      "Ã¤s": 7508,
      "create": 7509,
      "udi": 7510,
      "time": 7511,
      "Pre": 7512,
      "Ġ});Ċ": 7513,
      "eqref": 7514,
      "Ġpatterns": 7515,
      "Ġbreast": 7516,
      "Ġpowerful": 7517,
      "ells": 7518,
      "åı£": 7519,
      "Ã±o": 7520,
      "Ġliterature": 7521,
      "rij": 7522,
      "itÃ¤t": 7523,
      "Ġload": 7524,
      "Ġsolo": 7525,
      ".F": 7526,
      "ÐµÑĩ": 7527,
      "Ġseparate": 7528,
      "ayout": 7529,
      "ê¸": 7530,
      "Ġbatter": 7531,
      "ĠLear": 7532,
      "path": 7533,
      "Ġadult": 7534,
      "phas": 7535,
      "='": 7536,
      "oni": 7537,
      "Ġtox": 7538,
      "ocument": 7539,
      "ĠØ£ÙĨ": 7540,
      "ĠJos": 7541,
      "ĠStadt": 7542,
      "Ġplanet": 7543,
      "Out": 7544,
      "Ġimmune": 7545,
      "Ġgenetic": 7546,
      "fty": 7547,
      "ãĥĥãĥĹ": 7548,
      "Ġclasses": 7549,
      "ĠGesch": 7550,
      "She": 7551,
      "Ġeconomy": 7552,
      "Ġwieder": 7553,
      "ÑĢÐµÐ¼": 7554,
      "ãģŁãĤģ": 7555,
      ".w": 7556,
      "Ġplayer": 7557,
      "pet": 7558,
      "Ġlegisl": 7559,
      "Ġmm": 7560,
      "inde": 7561,
      "zent": 7562,
      "otic": 7563,
      "Ġteeth": 7564,
      "ĠRoyal": 7565,
      "ĠOlymp": 7566,
      "ifer": 7567,
      "Ġcounter": 7568,
      "ĠMartin": 7569,
      "pty": 7570,
      "overs": 7571,
      "alled": 7572,
      "cha": 7573,
      "ĠCongress": 7574,
      "Ġ**": 7575,
      "ĠÐ¼Ð¸": 7576,
      "ĠSpace": 7577,
      "Ġstandards": 7578,
      "ateur": 7579,
      "_D": 7580,
      "Ġcours": 7581,
      "bour": 7582,
      "Ã©nÃ©": 7583,
      "Ġalgorith": 7584,
      "ÑĤÑĮÑģÑı": 7585,
      "Ġ(\"": 7586,
      "Ġhistorical": 7587,
      "ifically": 7588,
      "partial": 7589,
      "Ġdecided": 7590,
      "Ġment": 7591,
      "èĦ": 7592,
      "Ġoperations": 7593,
      "iale": 7594,
      "Ġfond": 7595,
      "ãĢĭ": 7596,
      "Ġearn": 7597,
      "Ġpros": 7598,
      "Ġefficient": 7599,
      "ĠGoogle": 7600,
      "ÑĸÑĩ": 7601,
      "Ġlayer": 7602,
      "[]": 7603,
      "Ġvez": 7604,
      "Build": 7605,
      "Ġreached": 7606,
      "Do": 7607,
      "ãĢĬ": 7608,
      "')": 7609,
      "èį": 7610,
      "Ġrecorded": 7611,
      "ĠSon": 7612,
      "links": 7613,
      "Item": 7614,
      "Ġmaximum": 7615,
      "Ġcollege": 7616,
      "ĠHenry": 7617,
      "apping": 7618,
      "ãĤĤãģ®": 7619,
      "ĠìłĦ": 7620,
      "Ġconsult": 7621,
      "Ġfruit": 7622,
      "Ð½Ð¾ÑģÑĤÐ¸": 7623,
      "Ġrain": 7624,
      "ÃŃst": 7625,
      "Ġsowie": 7626,
      "ĠDE": 7627,
      "Ġpicture": 7628,
      "obl": 7629,
      "Ð¶Ð¸": 7630,
      "Ġstrugg": 7631,
      "ÑĨÐ¸Ñı": 7632,
      "olt": 7633,
      "ĠEach": 7634,
      "ĠNews": 7635,
      "ĠÑģÐ¸": 7636,
      "å¿ħ": 7637,
      "ĠInformation": 7638,
      "Ã´t": 7639,
      "æ¼": 7640,
      "Ġcore": 7641,
      "istan": 7642,
      "Ġkilled": 7643,
      "uper": 7644,
      "ĠUse": 7645,
      "Ġdelle": 7646,
      "ĠNa": 7647,
      "enda": 7648,
      "Ġcomponent": 7649,
      "ĠUm": 7650,
      "ÙĬØ¯": 7651,
      "Ġsurvey": 7652,
      "Ġgoals": 7653,
      "èĤ²": 7654,
      "Ġcatch": 7655,
      "ĠBecause": 7656,
      "ĠØ¬": 7657,
      "olds": 7658,
      "assen": 7659,
      "$.Ċ": 7660,
      "care": 7661,
      "ĠJac": 7662,
      "ĠVirgin": 7663,
      "Ã¥r": 7664,
      "´Ģ": 7665,
      "Ġpolice": 7666,
      "abilities": 7667,
      "lung": 7668,
      "Ġguide": 7669,
      "RI": 7670,
      "that": 7671,
      "Per": 7672,
      "Ġapproximately": 7673,
      "Ġble": 7674,
      "Ġbottom": 7675,
      "Ġready": 7676,
      "bst": 7677,
      "imiento": 7678,
      "Ġbillion": 7679,
      "ĠCam": 7680,
      "ĠÐ¾Ð±Ð»Ð°": 7681,
      "_l": 7682,
      "ĉpublic": 7683,
      "!!": 7684,
      "978": 7685,
      "Ġcab": 7686,
      "Ġresulting": 7687,
      "Ġtouch": 7688,
      "éĸĭ": 7689,
      "Ġheard": 7690,
      "Ġcycle": 7691,
      "ÐµÑĤÐ°": 7692,
      "ners": 7693,
      "nik": 7694,
      "ãĥĶ": 7695,
      "uh": 7696,
      "ä¾Ľ": 7697,
      "Ġvs": 7698,
      "emp": 7699,
      "kar": 7700,
      "Ġunits": 7701,
      "ĠBra": 7702,
      "Ġnella": 7703,
      "ĠÐ´Ð¸": 7704,
      "iling": 7705,
      "/*": 7706,
      "They": 7707,
      "itors": 7708,
      "_in": 7709,
      "íĥ": 7710,
      "ĠHuman": 7711,
      "kes": 7712,
      "Ġforeign": 7713,
      "Ġ);Ċ": 7714,
      "Ġliqu": 7715,
      "Ġnode": 7716,
      "Ġcel": 7717,
      "Ġpeace": 7718,
      "_j": 7719,
      "Bi": 7720,
      "Ġship": 7721,
      "anal": 7722,
      "ĠÐºÐ°Ðº": 7723,
      "Na": 7724,
      "Ġcombination": 7725,
      "Ġcart": 7726,
      "Ġital": 7727,
      "ãģªãģı": 7728,
      "wers": 7729,
      "van": 7730,
      "Let": 7731,
      "Ġweak": 7732,
      "Comm": 7733,
      "èº«": 7734,
      "èĥ": 7735,
      "Ð¿Ñĥ": 7736,
      "enne": 7737,
      "æ°ĳ": 7738,
      "ingen": 7739,
      "ĠĠĠĠĠĠ": 7740,
      "bes": 7741,
      "å¼ķ": 7742,
      "ĠPerson": 7743,
      "ĠMot": 7744,
      "Ġmix": 7745,
      "Ġillustr": 7746,
      "'e": 7747,
      "eben": 7748,
      "aro": 7749,
      "arp": 7750,
      "æľ¯": 7751,
      "Ġgeneration": 7752,
      "Ġmir": 7753,
      "Ġvision": 7754,
      "enth": 7755,
      "èµ·": 7756,
      "stream": 7757,
      "uent": 7758,
      "¡°": 7759,
      "ÑģÑĤÐ°Ð²": 7760,
      "agne": 7761,
      "cie": 7762,
      "ä½¿çĶ¨": 7763,
      "éĹ´": 7764,
      "ë¯": 7765,
      "Ġnative": 7766,
      "¤ĳ": 7767,
      "Ġrecords": 7768,
      "ÐµÐ³": 7769,
      "Ġconstru": 7770,
      "Ġprze": 7771,
      "Ġuno": 7772,
      "ÑģÑĤÐ²Ð¾": 7773,
      "ested": 7774,
      "ĠSi": 7775,
      "Ġthick": 7776,
      "Ġfirm": 7777,
      "Ã§Ãµes": 7778,
      "aque": 7779,
      ".de": 7780,
      "ktion": 7781,
      "Ġbaby": 7782,
      "Ġtrab": 7783,
      "ishing": 7784,
      "Ġpra": 7785,
      "zeich": 7786,
      "ÐµÑĨ": 7787,
      "oval": 7788,
      "ĠTheir": 7789,
      "Ġknew": 7790,
      "Ġincome": 7791,
      "ogy": 7792,
      "Ġstatement": 7793,
      "è¢": 7794,
      "ĠSecond": 7795,
      "Ġreplace": 7796,
      "idas": 7797,
      "Ġconnected": 7798,
      "ãĤµãĤ¤": 7799,
      "isen": 7800,
      "Ġforma": 7801,
      "Ġiron": 7802,
      "çĶ±": 7803,
      "/or": 7804,
      "175": 7805,
      "Ġces": 7806,
      "Ġwy": 7807,
      "Ġmode": 7808,
      "Ser": 7809,
      "Ġbreath": 7810,
      "Ġcual": 7811,
      "Ġaan": 7812,
      "åħ·": 7813,
      "Ġfailure": 7814,
      "Ġdeaths": 7815,
      "è±": 7816,
      "ĠÐ¾ÑĢ": 7817,
      "ãĤĮãģ¦": 7818,
      "ĠOld": 7819,
      "ĠPac": 7820,
      "cipl": 7821,
      "Ġdrive": 7822,
      "Ġmeeting": 7823,
      "ĠCle": 7824,
      "Ġurban": 7825,
      "url": 7826,
      "Ġdensity": 7827,
      "oven": 7828,
      "ierung": 7829,
      "æĶ¿": 7830,
      "ÑĢÐ¾Ð¼": 7831,
      "72": 7832,
      "Ġfaire": 7833,
      "Ġ:=": 7834,
      "ãĥ¼ãĥł": 7835,
      "ĠProdu": 7836,
      "ooth": 7837,
      "ensus": 7838,
      "Ġcorrel": 7839,
      "åĻ": 7840,
      "Ġachieve": 7841,
      "Ġcities": 7842,
      "ĠKore": 7843,
      "Ġnu": 7844,
      "Ġbon": 7845,
      "';Ċ": 7846,
      "Ġfinally": 7847,
      "actory": 7848,
      "ĠÐ¿Ð¾Ð²": 7849,
      "Ġdan": 7850,
      "äº¤": 7851,
      "Ġneut": 7852,
      "Ġbuildings": 7853,
      "Ġemail": 7854,
      "amental": 7855,
      "Ġyield": 7856,
      "rÃ¡": 7857,
      "Ġestimated": 7858,
      "Ġhit": 7859,
      "ĠAnn": 7860,
      "'aut": 7861,
      "Ġdomin": 7862,
      "Ð²Ð¾ÑĢ": 7863,
      "Ġremoved": 7864,
      "Ġnoted": 7865,
      "Ġìĸ": 7866,
      "Ġroll": 7867,
      "ĠĠĠĠĊ": 7868,
      "Ġ)Ċ": 7869,
      "rog": 7870,
      "fall": 7871,
      "Ġgegen": 7872,
      "Array": 7873,
      "}$,": 7874,
      "ĠMo": 7875,
      "ĠDire": 7876,
      "ĠHot": 7877,
      "Ġë¬": 7878,
      "170": 7879,
      "Ġprz": 7880,
      "EE": 7881,
      "eros": 7882,
      "acters": 7883,
      "unden": 7884,
      "Ġbalance": 7885,
      "ĠÐ°Ð²": 7886,
      "'ex": 7887,
      "ptions": 7888,
      ".in": 7889,
      "Ġsan": 7890,
      "Ġplanning": 7891,
      "nÄĽ": 7892,
      "ĠÐ¸Ð¼": 7893,
      "/c": 7894,
      "ÑģÐºÐ¾Ð¼": 7895,
      "Ð°Ð³": 7896,
      "uda": 7897,
      "terior": 7898,
      "ĠJer": 7899,
      "ãĥ³ãĥī": 7900,
      "Ġmont": 7901,
      "Ġvoice": 7902,
      "Ġclim": 7903,
      "_C": 7904,
      "ymbol": 7905,
      "ygen": 7906,
      "ãģ«ãĤĪ": 7907,
      "ĠÑĢÑĥ": 7908,
      "Ġìļ": 7909,
      "Ġsor": 7910,
      "BA": 7911,
      "ĠtrÃ¨s": 7912,
      "Ġopened": 7913,
      "Ġhasta": 7914,
      "content": 7915,
      "ĠRock": 7916,
      "ãĤ¿ãĥ¼": 7917,
      "ĠTable": 7918,
      "ĠHistor": 7919,
      "SC": 7920,
      "Ġmusical": 7921,
      "fÃ©rences": 7922,
      "Ġplaying": 7923,
      "Sp": 7924,
      "Delta": 7925,
      "Ġdistinct": 7926,
      "ĠPub": 7927,
      "ì£¼": 7928,
      "æ³¨": 7929,
      "Ġsport": 7930,
      "Ġcz": 7931,
      "Ġkid": 7932,
      "ĠGro": 7933,
      "Ġtrig": 7934,
      "Ġfear": 7935,
      "Ġunc": 7936,
      "åħ¬åı¸": 7937,
      "ĠMax": 7938,
      "gression": 7939,
      "Ġbelong": 7940,
      "ĠOpen": 7941,
      ".add": 7942,
      "iciÃ³n": 7943,
      "ĠMedical": 7944,
      "ĠHa": 7945,
      "(n": 7946,
      "Ġrecon": 7947,
      "Ġwindow": 7948,
      "æ±Ĥ": 7949,
      "haus": 7950,
      "};Ċ": 7951,
      "ĠDies": 7952,
      "Ġwhom": 7953,
      "TP": 7954,
      "ãģłãģĳ": 7955,
      "çģ": 7956,
      "ston": 7957,
      "ĠKn": 7958,
      "è®¡": 7959,
      "Ġhousehold": 7960,
      "Ġinjury": 7961,
      "Ġbirds": 7962,
      "Ġtele": 7963,
      "ĠUnder": 7964,
      "Ã¼d": 7965,
      "Ġmaster": 7966,
      ".</": 7967,
      "ĠkÃ¶": 7968,
      "enced": 7969,
      "ç§į": 7970,
      "Ġinflamm": 7971,
      "elled": 7972,
      "Ã¼l": 7973,
      "App": 7974,
      "Ġbelieved": 7975,
      "ãĥ¯": 7976,
      "tilde": 7977,
      "omega": 7978,
      "idden": 7979,
      "elli": 7980,
      "Ã¥n": 7981,
      "äºĮ": 7982,
      "ĠÑĢÐ¾Ð·": 7983,
      "ìĬµëĭĪëĭ¤": 7984,
      "ĠFra": 7985,
      "Ġdescribe": 7986,
      "ĠLong": 7987,
      "Ġtrop": 7988,
      "igration": 7989,
      "isme": 7990,
      "ĠVor": 7991,
      "Ġsurgery": 7992,
      "embly": 7993,
      "ĠĠĠĠĠĠĠĠĠĠ": 7994,
      "Ġmac": 7995,
      "Ġ$(": 7996,
      "Ġhear": 7997,
      "Ġspring": 7998,
      "ĠÐ´ÑĢÑĥ": 7999,
      "Ġshift": 8000,
      "aje": 8001,
      "!--": 8002,
      "itÃ©s": 8003,
      "itat": 8004,
      "Bibli": 8005,
      "ĠProject": 8006,
      "amiento": 8007,
      "íĻĶ": 8008,
      "Ġbone": 8009,
      "ĠØ§ÙĦØ³": 8010,
      "Ġdeutsch": 8011,
      "SA": 8012,
      "Ġmarg": 8013,
      "obe": 8014,
      "Ġsigns": 8015,
      "aks": 8016,
      "Ġblog": 8017,
      "æł¡": 8018,
      "Ġbek": 8019,
      "=right": 8020,
      "icial": 8021,
      "?\"": 8022,
      "Ġattract": 8023,
      "Ġsed": 8024,
      "IF": 8025,
      "Ð¼ÐµÑĢ": 8026,
      "ĠDef": 8027,
      "Ġadjust": 8028,
      "Ġalternative": 8029,
      "ync": 8030,
      "Ġmorning": 8031,
      "Ġtruth": 8032,
      "ĠSou": 8033,
      "Ġec": 8034,
      "awa": 8035,
      "Ġspent": 8036,
      "ructure": 8037,
      "Ġsubsequ": 8038,
      "éķ·": 8039,
      "çķĮ": 8040,
      "ugar": 8041,
      "Ġkept": 8042,
      "Ġexactly": 8043,
      "ĠId": 8044,
      "æµģ": 8045,
      "adre": 8046,
      "ĠBill": 8047,
      "130": 8048,
      "Ġmuscle": 8049,
      "ĠParty": 8050,
      "ĠJoseph": 8051,
      "ãģ¾ãģ§": 8052,
      "Ġindustrial": 8053,
      "åĲĦ": 8054,
      "Ġsequence": 8055,
      "Ġclosed": 8056,
      "Ġmedium": 8057,
      "åĥ": 8058,
      "ĠBern": 8059,
      "azz": 8060,
      "ĠDevelopment": 8061,
      "inos": 8062,
      "Ġanyone": 8063,
      "ï¼Ľ": 8064,
      "ĠSupp": 8065,
      "Ġoptim": 8066,
      "ifying": 8067,
      "Ġtodo": 8068,
      "My": 8069,
      "aille": 8070,
      "ĠServ": 8071,
      "ctors": 8072,
      "Ð¾ÑģÑģÐ¸": 8073,
      "ÐºÐ¾ÑĹ": 8074,
      "ĠBus": 8075,
      "alm": 8076,
      "ĠØ§ÙĦØŃ": 8077,
      "Ġselection": 8078,
      "Ġcant": 8079,
      "jection": 8080,
      "Ġseu": 8081,
      "riage": 8082,
      "ãĥ¢": 8083,
      "Ġstream": 8084,
      "ĠDistrict": 8085,
      "Ġtelevision": 8086,
      "anned": 8087,
      "ãĤ¬": 8088,
      "ãģ¹": 8089,
      "Ġru": 8090,
      "':": 8091,
      "rows": 8092,
      "Ġcovered": 8093,
      "ç¤º": 8094,
      "ht": 8095,
      "ska": 8096,
      "ìĪĺ": 8097,
      "Ġgel": 8098,
      "Ġsaying": 8099,
      "Ġatmosph": 8100,
      "ĠJewish": 8101,
      "Ġgets": 8102,
      "Ġsuggests": 8103,
      "oro": 8104,
      "erse": 8105,
      "ĠIV": 8106,
      "Ã¡m": 8107,
      "ponent": 8108,
      "oad": 8109,
      "Ġrelevant": 8110,
      "Ġhappen": 8111,
      "isis": 8112,
      "/**Ċ": 8113,
      "ommen": 8114,
      "argo": 8115,
      "sl": 8116,
      "car": 8117,
      "Ġscore": 8118,
      "IA": 8119,
      "Element": 8120,
      "dy": 8121,
      "Ġhuge": 8122,
      "otal": 8123,
      "Ġappeared": 8124,
      "insi": 8125,
      "Ġstrategy": 8126,
      "ĠÐŃ": 8127,
      "Code": 8128,
      "_M": 8129,
      "ampion": 8130,
      "ĠUr": 8131,
      "éĸ¢": 8132,
      "etzt": 8133,
      "ĠFurther": 8134,
      "Ġíķľ": 8135,
      "ç¦": 8136,
      "ĠArab": 8137,
      "ĠFigure": 8138,
      "Ġbecoming": 8139,
      "ĠSpanish": 8140,
      "ĠÐµÐ³Ð¾": 8141,
      "å£²": 8142,
      "Ġchallenges": 8143,
      "endre": 8144,
      "ĠTop": 8145,
      "Ġdefinition": 8146,
      "Ġlearned": 8147,
      "Ġfiles": 8148,
      "emble": 8149,
      ".st": 8150,
      "mit": 8151,
      "Ġdial": 8152,
      "Ġbeautiful": 8153,
      "æĹ¥æľ¬": 8154,
      "oding": 8155,
      "Ġstrategies": 8156,
      "ovi": 8157,
      "Ġlived": 8158,
      "Ġscreen": 8159,
      "rait": 8160,
      "Ġintellig": 8161,
      "Sub": 8162,
      "ĠÃ©p": 8163,
      "include": 8164,
      "Size": 8165,
      "Ã¡k": 8166,
      "ï¼ģ": 8167,
      "soft": 8168,
      "ĠChem": 8169,
      "æ©Ł": 8170,
      "Ð¿Ð°": 8171,
      "Ġstre": 8172,
      "vez": 8173,
      "èī¯": 8174,
      "Now": 8175,
      "Ã§ais": 8176,
      "ellent": 8177,
      "Ġbirths": 8178,
      "å®¹": 8179,
      "error": 8180,
      "Ġfrequency": 8181,
      "ĠJoh": 8182,
      "Ġencourag": 8183,
      "Ġsend": 8184,
      "encias": 8185,
      "Ġminer": 8186,
      "Ġitem": 8187,
      "è¿ĳ": 8188,
      "_name": 8189,
      "êµŃ": 8190,
      "ÐºÐ¸Ñħ": 8191,
      "Ġalcohol": 8192,
      "Ġplease": 8193,
      "uate": 8194,
      "life": 8195,
      "ĠDar": 8196,
      "Ġmej": 8197,
      "Ð½Ð¸Ñı": 8198,
      "ĠAnal": 8199,
      "Ġleaders": 8200,
      "Ġrequirements": 8201,
      "Ġregul": 8202,
      "ä¸ŃåĽ½": 8203,
      "Ġorient": 8204,
      "Person": 8205,
      "ìłĦ": 8206,
      "max": 8207,
      "Ġguer": 8208,
      "Ġorganizations": 8209,
      "EX": 8210,
      "Ġimmun": 8211,
      "ÑĨÐ¸Ð¾Ð½": 8212,
      "ä½ķ": 8213,
      "enen": 8214,
      "Ġrealiz": 8215,
      "orph": 8216,
      "å¥³": 8217,
      "Ġwaren": 8218,
      "dd": 8219,
      "UL": 8220,
      "|\\": 8221,
      "ĠSet": 8222,
      "anti": 8223,
      "Ġclick": 8224,
      "ĠTwo": 8225,
      "Ġtrial": 8226,
      "Ġsand": 8227,
      "stitution": 8228,
      "Ġegy": 8229,
      "rics": 8230,
      "åĳĺ": 8231,
      "Ġelev": 8232,
      "éĢł": 8233,
      "Ð½Ð¸ÐºÐ°": 8234,
      "ĠClin": 8235,
      "æİ¥": 8236,
      "ãģ§ãģĻãģĮ": 8237,
      "Ã»": 8238,
      "ãģĿãĤĮ": 8239,
      "ãĥĻ": 8240,
      "Ġtras": 8241,
      "Ġroz": 8242,
      "Ġmeasured": 8243,
      "ĠPC": 8244,
      "Ġrail": 8245,
      "ĠOs": 8246,
      "Ã¡z": 8247,
      "Ġdess": 8248,
      "iÄĻ": 8249,
      "open": 8250,
      "Ġcouple": 8251,
      "Ġsets": 8252,
      "icago": 8253,
      "icip": 8254,
      "Ġeines": 8255,
      "Ġargument": 8256,
      "Ð½Ð¾ÑĹ": 8257,
      "Ġchallenge": 8258,
      "Ġfle": 8259,
      "ĠTime": 8260,
      "ĠPsych": 8261,
      "anged": 8262,
      "Ġpages": 8263,
      "Ġíķĺ": 8264,
      "ims": 8265,
      "astern": 8266,
      "Ġfert": 8267,
      "Ùĭ": 8268,
      "Ġextremely": 8269,
      "_k": 8270,
      "Ġmuy": 8271,
      "åĮ»": 8272,
      "Ġdont": 8273,
      "ĠIll": 8274,
      "hetic": 8275,
      "ĠEgypt": 8276,
      "Our": 8277,
      "ãģķãģĦ": 8278,
      "Ġstars": 8279,
      "æĮĩ": 8280,
      ".;": 8281,
      "alis": 8282,
      "Ġstorage": 8283,
      "},Ċ": 8284,
      "ĠVan": 8285,
      "Ġmostly": 8286,
      "Ġnotes": 8287,
      "âĢ¦Ċ": 8288,
      "ÑĢÑĸ": 8289,
      "ĠOp": 8290,
      "æ§ĺ": 8291,
      "Ġnumerous": 8292,
      "Ã©tÃ©": 8293,
      "Ġcentre": 8294,
      "ĠElect": 8295,
      "uma": 8296,
      "éĻĲ": 8297,
      "ridge": 8298,
      "Ġconvers": 8299,
      "Ġnuclear": 8300,
      "mal": 8301,
      "Ġvary": 8302,
      "ĠLake": 8303,
      "Ġlang": 8304,
      "Ġleads": 8305,
      "Ġarticles": 8306,
      "olved": 8307,
      "win": 8308,
      "Ġtrust": 8309,
      "Def": 8310,
      "vas": 8311,
      "Ġalter": 8312,
      "ĠÃ©l": 8313,
      "Ġmentioned": 8314,
      "Ġinterview": 8315,
      "ÑĥÐ¼": 8316,
      "enza": 8317,
      "Ġax": 8318,
      "Ġaw": 8319,
      "Ġvul": 8320,
      "Ã¶s": 8321,
      "uffer": 8322,
      "ĠCr": 8323,
      "Ġgrant": 8324,
      "ÅĻÃŃ": 8325,
      "ĠÐ¿Ð¾ÑģÑĤ": 8326,
      "Ġstraight": 8327,
      "result": 8328,
      "cor": 8329,
      "Ġhour": 8330,
      "RA": 8331,
      "Ãºblic": 8332,
      "Ġfamous": 8333,
      "ĠMexico": 8334,
      "aching": 8335,
      "ĠPrem": 8336,
      "Ġmetab": 8337,
      "ĠCommission": 8338,
      "iced": 8339,
      "ÅĤo": 8340,
      "Ġtrain": 8341,
      "ÑģÑĤÐ¾ÑĢÐ¸": 8342,
      "Weblinks": 8343,
      "ĠOper": 8344,
      "Manager": 8345,
      "Ġopportunities": 8346,
      "{figure": 8347,
      "aped": 8348,
      "tty": 8349,
      "stract": 8350,
      "ĠBank": 8351,
      "ĠFil": 8352,
      "Ġwarn": 8353,
      "Ġchronic": 8354,
      "ÑıÐ½": 8355,
      "Ġassessment": 8356,
      "å¹¶": 8357,
      "uly": 8358,
      "Ġdann": 8359,
      "ĠBes": 8360,
      "Ġhem": 8361,
      "Ġ(!": 8362,
      "otype": 8363,
      "-like": 8364,
      "Ġillness": 8365,
      "yles": 8366,
      "ĩãģĨ": 8367,
      "idade": 8368,
      "Ġclearly": 8369,
      "ĠBa": 8370,
      "iveness": 8371,
      "lements": 8372,
      "ĠIts": 8373,
      "Ġexpert": 8374,
      "ĠGovernment": 8375,
      "Ġear": 8376,
      "ensch": 8377,
      "ĠÃľ": 8378,
      "Ġandroid": 8379,
      "Ġsans": 8380,
      "ç¢": 8381,
      "Ġmel": 8382,
      "103": 8383,
      "Ġexcess": 8384,
      "Ġextract": 8385,
      "Ġremained": 8386,
      "Â²": 8387,
      "\\\\Ċ": 8388,
      "ĠStat": 8389,
      "176": 8390,
      "rieved": 8391,
      "Ġvac": 8392,
      "sim": 8393,
      "uÃ©s": 8394,
      "-related": 8395,
      "ÑģÑĤÐ²ÐµÐ½": 8396,
      "ĠÃ©gal": 8397,
      "Ġreality": 8398,
      "Ġannual": 8399,
      "ãĤ½": 8400,
      "dz": 8401,
      "ãĥ¼ãĤ¸": 8402,
      "(m": 8403,
      "Ġhatte": 8404,
      "aupt": 8405,
      "atically": 8406,
      "Med": 8407,
      "ĠíĻ": 8408,
      "Ġfeeling": 8409,
      "Ġsector": 8410,
      "Ġbattle": 8411,
      "Ġfloor": 8412,
      "æľį": 8413,
      "ÐµÐ»Ð°": 8414,
      "Ġfinding": 8415,
      "Message": 8416,
      "Ġseine": 8417,
      "-th": 8418,
      "Ð´ÐµÐ½": 8419,
      "ĠÑģÐº": 8420,
      "Ġdram": 8421,
      "ologist": 8422,
      "Ġleader": 8423,
      "ĠProv": 8424,
      "Ġë³´": 8425,
      "Ġcharacters": 8426,
      "ĠOx": 8427,
      "Ð½Ð°Ñĩ": 8428,
      "ÑĤÐ¾Ð¼": 8429,
      "group": 8430,
      "Ġwin": 8431,
      "Ġconclud": 8432,
      "ns": 8433,
      "ìĻĢ": 8434,
      "åĻ¨": 8435,
      "ĠÐ³ÑĢÐ°": 8436,
      "Ġexperiences": 8437,
      "111": 8438,
      "Ġhelped": 8439,
      "auer": 8440,
      "ĠAz": 8441,
      "Ġdonde": 8442,
      "udad": 8443,
      "Ġampl": 8444,
      "Ð¶Ð°": 8445,
      "ĠMinister": 8446,
      "Gener": 8447,
      "Ġcomfort": 8448,
      "ĠCe": 8449,
      "aya": 8450,
      "ĠDou": 8451,
      "lav": 8452,
      "Â±": 8453,
      "Part": 8454,
      "Ġeducational": 8455,
      "Ġdent": 8456,
      "Ġregarding": 8457,
      "-time": 8458,
      "Ġcontaining": 8459,
      "Ġcogn": 8460,
      "Ġpopulations": 8461,
      "Ġflo": 8462,
      "current": 8463,
      "/l": 8464,
      "Ġcombined": 8465,
      "Ġiz": 8466,
      "icol": 8467,
      "ç¡": 8468,
      "Ġsalt": 8469,
      "åł´åĲĪ": 8470,
      "elij": 8471,
      "gio": 8472,
      "ivation": 8473,
      "Ġfib": 8474,
      "Ġmoder": 8475,
      "Ġideal": 8476,
      "Ãºs": 8477,
      "rition": 8478,
      "Ġaspects": 8479,
      "ĠPop": 8480,
      "çĬ¶": 8481,
      "Ġentr": 8482,
      "ĠFoundation": 8483,
      "ĠWal": 8484,
      "Ġhop": 8485,
      "ĠEmp": 8486,
      "oral": 8487,
      "rec": 8488,
      "æĿĲ": 8489,
      "auc": 8490,
      "iler": 8491,
      "ĠOh": 8492,
      "ĠRos": 8493,
      "ĠMill": 8494,
      "Ġlors": 8495,
      "Ġplastic": 8496,
      "æ²»": 8497,
      "')Ċ": 8498,
      "alo": 8499,
      "azon": 8500,
      "Ġdiscussion": 8501,
      "Ġtherm": 8502,
      "ameter": 8503,
      "Ġartist": 8504,
      "Ġcontro": 8505,
      "igation": 8506,
      "iday": 8507,
      "check": 8508,
      "ĠFort": 8509,
      "Ġdop": 8510,
      "ÑģÑĮÐºÐ¾Ð³Ð¾": 8511,
      "ĠAsia": 8512,
      "Ġinstrument": 8513,
      "Ġmilk": 8514,
      "Ġadvanced": 8515,
      "Ġcitizens": 8516,
      "Ġstudied": 8517,
      "çĥ": 8518,
      "Ġpremier": 8519,
      "Fr": 8520,
      "ëıĻ": 8521,
      "éĶ": 8522,
      "ĠZh": 8523,
      "ME": 8524,
      "requ": 8525,
      "Ġrestaur": 8526,
      "Ġedge": 8527,
      "Ġcloud": 8528,
      "ĠpiÃ¹": 8529,
      "Ġweiter": 8530,
      "}[": 8531,
      "ĠAk": 8532,
      "aka": 8533,
      "was": 8534,
      "Can": 8535,
      "Ġthousands": 8536,
      "Ġsynd": 8537,
      "Ġdieser": 8538,
      "ÐºÑĢÐ°ÑĹ": 8539,
      "Ġgarden": 8540,
      "Ġreaction": 8541,
      "CA": 8542,
      "ĠScott": 8543,
      "Ġcompreh": 8544,
      "Ġfilter": 8545,
      "{R": 8546,
      "Ġreform": 8547,
      "íĦ": 8548,
      "ascular": 8549,
      "Ġstock": 8550,
      "Ġdoll": 8551,
      "Ġemphas": 8552,
      "Ġsquare": 8553,
      "rik": 8554,
      "cin": 8555,
      "ĠWomen": 8556,
      "ril": 8557,
      "ÃĹ": 8558,
      "ĠEnvironment": 8559,
      "iox": 8560,
      "hol": 8561,
      "Ġbow": 8562,
      "ĠMusic": 8563,
      "lad": 8564,
      "ÐºÐ°Ð½": 8565,
      "ãģ«ãģ¤": 8566,
      "ĠDivision": 8567,
      "Ð»Ð¾Ð²": 8568,
      "Ġprison": 8569,
      "Ġshared": 8570,
      "rz": 8571,
      "oche": 8572,
      "ÑĨÐµ": 8573,
      "{eqn": 8574,
      "ĠCOVID": 8575,
      "ãģĤãĤĬãģ¾ãģĻ": 8576,
      "Ġconsumption": 8577,
      "Ġmarried": 8578,
      "Log": 8579,
      "Ġ;Ċ": 8580,
      "\"/": 8581,
      "Ġflex": 8582,
      "undert": 8583,
      "PR": 8584,
      "ĠMedicine": 8585,
      "Ġwidely": 8586,
      "Ø§Ùģ": 8587,
      "sche": 8588,
      "å½¢": 8589,
      "ierre": 8590,
      "unst": 8591,
      "Â».Ċ": 8592,
      "infty": 8593,
      "ĠOk": 8594,
      "orie": 8595,
      "azine": 8596,
      "ĠMen": 8597,
      "-r": 8598,
      "Ġprocedure": 8599,
      "INE": 8600,
      "Ġpuede": 8601,
      "ÙĪÙħ": 8602,
      "Ġunf": 8603,
      "æħ": 8604,
      "EST": 8605,
      "ĠCup": 8606,
      "Ġtopic": 8607,
      "nect": 8608,
[...]
